#ifdef __has_attribute
#define HAVE_ATTRIBUTE(x) __has_attribute(x)
#else
#define HAVE_ATTRIBUTE(x) 0
#endif
#if HAVE_ATTRIBUTE(aligned) || (defined(__GNUC__) && !defined(__clang__))
#define DATA_ALIGN_ATTRIBUTE __attribute__((aligned(4)))
#else
#define DATA_ALIGN_ATTRIBUTE
#endif

const unsigned char digits_model[] DATA_ALIGN_ATTRIBUTE = {
	0x1c, 0x00, 0x00, 0x00, 0x54, 0x46, 0x4c, 0x33, 0x14, 0x00, 0x20, 0x00, 
	0x1c, 0x00, 0x18, 0x00, 0x14, 0x00, 0x10, 0x00, 0x0c, 0x00, 0x00, 0x00, 
	0x08, 0x00, 0x04, 0x00, 0x14, 0x00, 0x00, 0x00, 0x1c, 0x00, 0x00, 0x00, 
	0x88, 0x00, 0x00, 0x00, 0xe0, 0x00, 0x00, 0x00, 0xa0, 0x0e, 0x00, 0x00, 
	0xb0, 0x0e, 0x00, 0x00, 0x9c, 0x14, 0x00, 0x00, 0x03, 0x00, 0x00, 0x00, 
	0x01, 0x00, 0x00, 0x00, 0x04, 0x00, 0x00, 0x00, 0xde, 0xf0, 0xff, 0xff, 
	0x0c, 0x00, 0x00, 0x00, 0x1c, 0x00, 0x00, 0x00, 0x38, 0x00, 0x00, 0x00, 
	0x0f, 0x00, 0x00, 0x00, 0x73, 0x65, 0x72, 0x76, 0x69, 0x6e, 0x67, 0x5f, 
	0x64, 0x65, 0x66, 0x61, 0x75, 0x6c, 0x74, 0x00, 0x01, 0x00, 0x00, 0x00, 
	0x04, 0x00, 0x00, 0x00, 0x94, 0xff, 0xff, 0xff, 0x09, 0x00, 0x00, 0x00, 
	0x04, 0x00, 0x00, 0x00, 0x07, 0x00, 0x00, 0x00, 0x64, 0x65, 0x6e, 0x73, 
	0x65, 0x5f, 0x31, 0x00, 0x01, 0x00, 0x00, 0x00, 0x04, 0x00, 0x00, 0x00, 
	0xfe, 0xf1, 0xff, 0xff, 0x04, 0x00, 0x00, 0x00, 0x0e, 0x00, 0x00, 0x00, 
	0x63, 0x6f, 0x6e, 0x76, 0x32, 0x64, 0x5f, 0x31, 0x5f, 0x69, 0x6e, 0x70, 
	0x75, 0x74, 0x00, 0x00, 0x02, 0x00, 0x00, 0x00, 0x34, 0x00, 0x00, 0x00, 
	0x04, 0x00, 0x00, 0x00, 0xdc, 0xff, 0xff, 0xff, 0x0c, 0x00, 0x00, 0x00, 
	0x04, 0x00, 0x00, 0x00, 0x13, 0x00, 0x00, 0x00, 0x43, 0x4f, 0x4e, 0x56, 
	0x45, 0x52, 0x53, 0x49, 0x4f, 0x4e, 0x5f, 0x4d, 0x45, 0x54, 0x41, 0x44, 
	0x41, 0x54, 0x41, 0x00, 0x08, 0x00, 0x0c, 0x00, 0x08, 0x00, 0x04, 0x00, 
	0x08, 0x00, 0x00, 0x00, 0x0b, 0x00, 0x00, 0x00, 0x04, 0x00, 0x00, 0x00, 
	0x13, 0x00, 0x00, 0x00, 0x6d, 0x69, 0x6e, 0x5f, 0x72, 0x75, 0x6e, 0x74, 
	0x69, 0x6d, 0x65, 0x5f, 0x76, 0x65, 0x72, 0x73, 0x69, 0x6f, 0x6e, 0x00, 
	0x0d, 0x00, 0x00, 0x00, 0xbc, 0x0d, 0x00, 0x00, 0xb4, 0x0d, 0x00, 0x00, 
	0x84, 0x0d, 0x00, 0x00, 0x4c, 0x0c, 0x00, 0x00, 0x14, 0x0c, 0x00, 0x00, 
	0xfc, 0x0b, 0x00, 0x00, 0xac, 0x00, 0x00, 0x00, 0xa4, 0x00, 0x00, 0x00, 
	0x9c, 0x00, 0x00, 0x00, 0x94, 0x00, 0x00, 0x00, 0x8c, 0x00, 0x00, 0x00, 
	0x6c, 0x00, 0x00, 0x00, 0x04, 0x00, 0x00, 0x00, 0xae, 0xf2, 0xff, 0xff, 
	0x04, 0x00, 0x00, 0x00, 0x58, 0x00, 0x00, 0x00, 0x0c, 0x00, 0x00, 0x00, 
	0x08, 0x00, 0x0e, 0x00, 0x08, 0x00, 0x04, 0x00, 0x08, 0x00, 0x00, 0x00, 
	0x10, 0x00, 0x00, 0x00, 0x28, 0x00, 0x00, 0x00, 0x00, 0x00, 0x06, 0x00, 
	0x08, 0x00, 0x04, 0x00, 0x06, 0x00, 0x00, 0x00, 0x04, 0x00, 0x00, 0x00, 
	0x01, 0x00, 0x00, 0x00, 0xea, 0x03, 0x00, 0x00, 0x00, 0x00, 0x0a, 0x00, 
	0x10, 0x00, 0x0c, 0x00, 0x08, 0x00, 0x04, 0x00, 0x0a, 0x00, 0x00, 0x00, 
	0x02, 0x00, 0x00, 0x00, 0x02, 0x00, 0x00, 0x00, 0x04, 0x00, 0x00, 0x00, 
	0x06, 0x00, 0x00, 0x00, 0x32, 0x2e, 0x31, 0x31, 0x2e, 0x30, 0x00, 0x00, 
	0x12, 0xf3, 0xff, 0xff, 0x04, 0x00, 0x00, 0x00, 0x10, 0x00, 0x00, 0x00, 
	0x31, 0x2e, 0x35, 0x2e, 0x30, 0x00, 0x00, 0x00, 0x00, 0x00, 0x00, 0x00, 
	0x00, 0x00, 0x00, 0x00, 0x34, 0xed, 0xff, 0xff, 0x38, 0xed, 0xff, 0xff, 
	0x3c, 0xed, 0xff, 0xff, 0x40, 0xed, 0xff, 0xff, 0x3e, 0xf3, 0xff, 0xff, 
	0x04, 0x00, 0x00, 0x00, 0x40, 0x0b, 0x00, 0x00, 0x83, 0x01, 0xab, 0x3e, 
	0x10, 0xe8, 0x49, 0xbd, 0x83, 0xcd, 0x90, 0x3e, 0x81, 0xac, 0x3c, 0x3e, 
	0x74, 0xb1, 0xaa, 0x3d, 0x50, 0xd8, 0x2f, 0x3e, 0x86, 0x13, 0x68, 0xbd, 
	0xe6, 0x53, 0x34, 0x3e, 0x0a, 0x6a, 0x46, 0xbf, 0xc7, 0x20, 0xed, 0x3e, 
	0xc3, 0x44, 0xd9, 0xbe, 0x88, 0x7c, 0x33, 0x3e, 0x8e, 0xd8, 0x5a, 0xbe, 
	0xb7, 0x61, 0xe1, 0x3e, 0x14, 0xb5, 0x03, 0xbe, 0x87, 0x1f, 0xbe, 0x3e, 
	0x2b, 0x86, 0x63, 0x3e, 0xf1, 0xef, 0xdf, 0xbc, 0x49, 0x96, 0x44, 0x3e, 
	0x94, 0x58, 0x39, 0x3e, 0xf9, 0xd2, 0x02, 0x3e, 0xee, 0xc2, 0xd5, 0x3d, 
	0x11, 0xb0, 0xce, 0xbe, 0x87, 0x38, 0x7b, 0xbf, 0x9a, 0x94, 0x28, 0xbf, 
	0xd4, 0x75, 0x45, 0xbf, 0x8e, 0xf4, 0x03, 0x3e, 0x4e, 0xe8, 0xf2, 0xbd, 
	0xcb, 0xd3, 0xb3, 0xbb, 0xb8, 0xcc, 0x3d, 0x3f, 0x78, 0x1b, 0xb0, 0x3e, 
	0x59, 0x31, 0x01, 0xbf, 0x89, 0x32, 0xcf, 0xbe, 0xde, 0xbd, 0x40, 0xbf, 
	0x19, 0x04, 0x91, 0xbf, 0x8f, 0xa6, 0x88, 0xbf, 0x0c, 0xe8, 0xbf, 0x3d, 
	0x0d, 0x0c, 0x98, 0x3e, 0xc0, 0xac, 0x63, 0x3d, 0xd7, 0x66, 0x56, 0xbe, 
	0x81, 0x24, 0x3b, 0xbf, 0xb3, 0x9e, 0x84, 0xbe, 0x01, 0xec, 0xe2, 0x3e, 
	0x19, 0xb2, 0x19, 0x3e, 0xd5, 0x3b, 0x3a, 0xbe, 0xa4, 0x63, 0x70, 0x3d, 
	0x07, 0x75, 0x98, 0xbb, 0x7c, 0xee, 0x1d, 0xbe, 0xe2, 0x39, 0x8a, 0xbf, 
	0x4a, 0x81, 0xb5, 0xbe, 0xbe, 0xc7, 0xc9, 0x3e, 0x2e, 0x0c, 0x08, 0x3d, 
	0xe6, 0x58, 0x58, 0xbe, 0x96, 0x26, 0xa8, 0x3e, 0x59, 0x9c, 0x43, 0x3e, 
	0xec, 0x75, 0xdf, 0x3d, 0xf9, 0xf4, 0x7c, 0x3e, 0xc7, 0xf1, 0x25, 0x3f, 
	0x8d, 0x65, 0x20, 0xbf, 0x81, 0x04, 0xdb, 0xbe, 0xac, 0xeb, 0xdf, 0xbd, 
	0x62, 0x04, 0x93, 0x3e, 0x0f, 0x47, 0x16, 0xbf, 0x3e, 0x75, 0x2f, 0x3d, 
	0xf9, 0x85, 0x11, 0xbf, 0x76, 0x08, 0xa3, 0xbe, 0xd0, 0xb8, 0x9c, 0x3e, 
	0xae, 0xee, 0x9c, 0x3d, 0xdf, 0xf7, 0x25, 0x3e, 0xbe, 0x1d, 0x34, 0x3e, 
	0xca, 0x76, 0x53, 0x3e, 0x96, 0xfb, 0xa3, 0x3e, 0xd0, 0x22, 0xa4, 0x3e, 
	0x99, 0xa5, 0x2a, 0xbf, 0xfc, 0x19, 0x2d, 0xbf, 0xd0, 0x2f, 0x3c, 0xbd, 
	0xc0, 0x1a, 0xb1, 0x3d, 0x84, 0x72, 0x90, 0xbf, 0x0d, 0x22, 0x5c, 0xbf, 
	0x82, 0x90, 0x37, 0xbf, 0xe5, 0xc0, 0x1c, 0x3f, 0xe9, 0x88, 0x06, 0xbe, 
	0xf0, 0xe0, 0xd7, 0x3e, 0x7c, 0xb7, 0xee, 0x3e, 0x8e, 0x79, 0x13, 0x3e, 
	0x01, 0x11, 0xae, 0x3e, 0x05, 0xbe, 0x8e, 0x3d, 0x63, 0xe0, 0x79, 0xbf, 
	0xf0, 0x5a, 0xfa, 0xbd, 0xba, 0x47, 0x91, 0xbe, 0x9c, 0xbd, 0x2d, 0x3d, 
	0x6c, 0xe5, 0x82, 0xbe, 0x88, 0xbf, 0x9a, 0xbd, 0x1a, 0x23, 0xf9, 0x3d, 
	0xfa, 0x8e, 0x1b, 0x3e, 0x72, 0xf0, 0x7a, 0xbf, 0x0c, 0x11, 0x92, 0xbc, 
	0x5b, 0x9c, 0x12, 0x3d, 0x03, 0x0d, 0x5e, 0x3e, 0x20, 0x71, 0xfe, 0x3e, 
	0x6f, 0x84, 0x6f, 0x3e, 0x71, 0x9d, 0xf0, 0xbe, 0xcc, 0xe1, 0xa2, 0x3d, 
	0x9b, 0x9f, 0x61, 0x3e, 0x44, 0xb1, 0x1c, 0xbf, 0x45, 0x3a, 0x3b, 0xbf, 
	0xf8, 0x07, 0x1a, 0x3d, 0x56, 0x8a, 0x21, 0x3f, 0xf1, 0xee, 0x92, 0xbd, 
	0xbe, 0x30, 0x81, 0x3e, 0xfa, 0x70, 0x2e, 0x3e, 0x50, 0xb4, 0x51, 0xbf, 
	0x30, 0xf3, 0x9d, 0x3b, 0x0d, 0x0f, 0x6d, 0xbd, 0x45, 0x91, 0xa0, 0xbe, 
	0x86, 0x48, 0xd7, 0xbe, 0xde, 0x85, 0xa6, 0xbd, 0xf3, 0xdc, 0xf1, 0x3c, 
	0xdf, 0x06, 0x60, 0x3e, 0x92, 0x21, 0x89, 0xbf, 0xbb, 0xde, 0xc9, 0xbd, 
	0xe5, 0x22, 0xe3, 0xbe, 0x31, 0xd7, 0xab, 0xbe, 0x9c, 0x68, 0x87, 0xbe, 
	0x33, 0xaf, 0x84, 0x3e, 0xfb, 0x11, 0x56, 0xbf, 0xe5, 0x5c, 0x6e, 0xbf, 
	0x66, 0x5d, 0xc6, 0xbd, 0xbf, 0x65, 0x4c, 0xbf, 0x62, 0x72, 0xff, 0xbe, 
	0x95, 0x2c, 0x3f, 0x3d, 0xf5, 0x0f, 0x9c, 0x3e, 0x74, 0xf5, 0x22, 0xbd, 
	0xd8, 0x2a, 0x61, 0xbd, 0xf1, 0x57, 0x43, 0xbe, 0x38, 0xe6, 0x4b, 0xbf, 
	0x83, 0x57, 0x2f, 0x3f, 0xa4, 0xd0, 0x73, 0x3e, 0xbf, 0x6c, 0x5a, 0xbe, 
	0x1f, 0xa3, 0xca, 0xbd, 0xf0, 0xc7, 0x7c, 0x3e, 0xe5, 0xd5, 0x13, 0x3e, 
	0xe2, 0x85, 0x68, 0xbe, 0xbe, 0x3f, 0xb3, 0xbf, 0x3c, 0xef, 0x88, 0xbd, 
	0xea, 0xfb, 0x76, 0x3e, 0x58, 0xef, 0x00, 0xbe, 0x12, 0x37, 0x34, 0xbd, 
	0xf3, 0xa6, 0x30, 0xbe, 0xdb, 0xf3, 0x87, 0x3e, 0x8c, 0x4b, 0x88, 0x3e, 
	0x47, 0x5e, 0xcc, 0x3e, 0x17, 0xee, 0x5c, 0xbf, 0x46, 0x7e, 0xe0, 0xbe, 
	0x01, 0xbb, 0x5d, 0xbe, 0xad, 0xc6, 0x1d, 0xbe, 0xc0, 0x06, 0x8b, 0xbc, 
	0xac, 0x07, 0xf8, 0xbe, 0x23, 0xb7, 0xc3, 0xbc, 0x83, 0x3a, 0x10, 0xbf, 
	0x77, 0x07, 0x99, 0x3e, 0x46, 0x9e, 0x4d, 0x3e, 0x8f, 0xda, 0xda, 0xbe, 
	0x13, 0x6d, 0x02, 0xbe, 0x9a, 0xb1, 0x8a, 0xbe, 0xaa, 0x61, 0xb8, 0xbc, 
	0x0f, 0x1d, 0xd1, 0x3c, 0xcf, 0x9c, 0xb9, 0xbe, 0x0a, 0xe4, 0x0a, 0x3f, 
	0x45, 0x94, 0x2a, 0xbf, 0x3c, 0xac, 0xf9, 0xbe, 0x59, 0x06, 0xf8, 0xbe, 
	0x67, 0x1f, 0x84, 0x3e, 0x6a, 0x99, 0x3c, 0xbe, 0xbd, 0x41, 0x6e, 0xbe, 
	0xae, 0x43, 0x43, 0xbe, 0x7e, 0xd9, 0xff, 0xbb, 0x00, 0xcd, 0x46, 0xbf, 
	0xce, 0xd6, 0xce, 0x3e, 0x13, 0xfc, 0x10, 0xbe, 0xaf, 0x6b, 0x8f, 0x3d, 
	0xf9, 0x14, 0xeb, 0xbe, 0xc5, 0x39, 0x14, 0x3e, 0xa5, 0x59, 0x5f, 0x3e, 
	0x5d, 0xe3, 0xa7, 0xbf, 0x7f, 0xab, 0xc9, 0xbe, 0xc4, 0x86, 0xab, 0xbe, 
	0x56, 0x3c, 0xce, 0xbe, 0xf0, 0x66, 0xbd, 0xbd, 0xa2, 0x7e, 0xcd, 0x3d, 
	0x56, 0xe0, 0x6b, 0x3e, 0xf0, 0x88, 0xbe, 0x3d, 0x03, 0xc9, 0x04, 0x3f, 
	0xd8, 0x0c, 0xbc, 0x3e, 0xf7, 0xce, 0x73, 0xbe, 0xf5, 0xf9, 0x18, 0x3e, 
	0xac, 0xf9, 0xe2, 0xbd, 0x46, 0xe7, 0xc6, 0xbd, 0xf8, 0x84, 0xf1, 0xbd, 
	0xb8, 0x79, 0x9c, 0xbe, 0xcb, 0x99, 0x26, 0x3f, 0x63, 0xef, 0xdd, 0x3e, 
	0xde, 0xf6, 0xfe, 0x3e, 0x8a, 0xe6, 0x50, 0x3d, 0xba, 0xd3, 0xee, 0xbd, 
	0xd5, 0x9e, 0x8a, 0x3e, 0xbd, 0xec, 0x19, 0x3f, 0xa8, 0x5c, 0x52, 0xbf, 
	0x30, 0x3a, 0x61, 0x3f, 0xe4, 0x6a, 0x98, 0x3e, 0xb8, 0x76, 0x89, 0xbd, 
	0x10, 0x7c, 0x73, 0xbd, 0x06, 0x09, 0x7d, 0xbe, 0xd1, 0x0b, 0x07, 0xbe, 
	0x35, 0x18, 0xaa, 0xbe, 0x3c, 0x6b, 0xcf, 0xbe, 0x91, 0x70, 0x42, 0xbf, 
	0x4f, 0x78, 0xc1, 0x3e, 0x63, 0x0d, 0x31, 0xbe, 0xe0, 0xf5, 0xa8, 0x3c, 
	0xa8, 0x37, 0x5d, 0x3d, 0x66, 0x4b, 0xf0, 0x3e, 0x89, 0xe1, 0xbf, 0x3e, 
	0x80, 0x19, 0x25, 0x3f, 0x4b, 0x1f, 0x8c, 0xbf, 0xa5, 0x8b, 0x40, 0xbf, 
	0x9e, 0x49, 0x8e, 0x3e, 0xad, 0x11, 0x7d, 0x3e, 0x5c, 0x57, 0x16, 0x3e, 
	0xfe, 0x88, 0xaa, 0xbe, 0xa6, 0xf8, 0xef, 0xbd, 0xa9, 0xe5, 0xf4, 0x3d, 
	0x12, 0xa8, 0x0c, 0xbf, 0x6d, 0xc8, 0x31, 0x3e, 0x3c, 0x0d, 0x70, 0xbe, 
	0xfa, 0x0e, 0xf9, 0xbc, 0xd5, 0x0e, 0x4c, 0xbe, 0x36, 0x48, 0x31, 0x3e, 
	0xe2, 0x69, 0xb2, 0x3e, 0x9b, 0x73, 0x6a, 0x3e, 0x58, 0xb9, 0xc9, 0x3e, 
	0x33, 0xe1, 0x00, 0xbf, 0x3e, 0x0d, 0x6a, 0xbf, 0xad, 0xb7, 0x32, 0xbf, 
	0xb1, 0x98, 0x5a, 0xbb, 0xb3, 0xab, 0x17, 0xbe, 0xa8, 0xe0, 0x1b, 0xbf, 
	0xdf, 0x07, 0xbf, 0xbd, 0x16, 0xa5, 0x86, 0xbe, 0xbd, 0xbc, 0xed, 0xbe, 
	0x64, 0x62, 0xc4, 0x3e, 0xc2, 0x34, 0x1c, 0x3e, 0x7c, 0x02, 0x07, 0xbe, 
	0x61, 0x6a, 0x6e, 0xbf, 0xde, 0xf8, 0xe4, 0xbd, 0xcb, 0x8d, 0xd7, 0x3e, 
	0xa1, 0x25, 0x16, 0x3f, 0xb4, 0x55, 0xc1, 0x3c, 0x1f, 0x2c, 0xd8, 0xbe, 
	0x45, 0x67, 0x31, 0x3d, 0xb6, 0x70, 0x62, 0xbd, 0x39, 0xb3, 0x52, 0xbe, 
	0x90, 0xe5, 0x46, 0x3e, 0xf2, 0x25, 0xfe, 0x3e, 0x2b, 0x75, 0x88, 0x3e, 
	0xa0, 0x0c, 0x2c, 0x3f, 0x47, 0x67, 0xdf, 0xbe, 0xec, 0xbb, 0xea, 0xbe, 
	0x8a, 0x3d, 0x3c, 0xbe, 0x13, 0x45, 0xc6, 0xbe, 0xb0, 0xa0, 0xa6, 0xba, 
	0xd5, 0x7d, 0x26, 0xbe, 0x2c, 0x81, 0xf9, 0x3e, 0x41, 0x01, 0x32, 0xbe, 
	0x2b, 0x9a, 0x7f, 0xbe, 0xf6, 0x56, 0x94, 0xbe, 0x9a, 0x2e, 0x07, 0x3e, 
	0x12, 0x76, 0x42, 0xbf, 0xa0, 0xa6, 0x98, 0xbe, 0x71, 0x8f, 0xe2, 0x3e, 
	0x50, 0x1d, 0xd4, 0xbd, 0xfd, 0xc1, 0xb9, 0x3d, 0x97, 0x72, 0xe0, 0x3e, 
	0xa5, 0x0b, 0xf7, 0x3e, 0x1f, 0xfd, 0x22, 0x3e, 0xc5, 0x2f, 0x93, 0x3e, 
	0xfd, 0x55, 0x00, 0xbd, 0xa6, 0xcd, 0xab, 0x3e, 0x82, 0x30, 0x1a, 0x3f, 
	0xcb, 0x6a, 0x46, 0x3c, 0xa5, 0x87, 0x04, 0xbe, 0xb6, 0xa7, 0x0c, 0xbe, 
	0x00, 0x05, 0xbd, 0xba, 0x64, 0x5f, 0xa5, 0xbe, 0x5b, 0x6e, 0x0f, 0xbf, 
	0xab, 0xc9, 0x3c, 0xbf, 0xe1, 0xb2, 0xfa, 0x3e, 0x46, 0x39, 0xf9, 0xbe, 
	0x16, 0xde, 0x0c, 0x3e, 0xaf, 0x2e, 0x12, 0xbf, 0x60, 0x51, 0x4c, 0x3e, 
	0x85, 0x5b, 0x3f, 0xbe, 0xda, 0xf1, 0xbd, 0x3e, 0xf2, 0xf9, 0x3d, 0x3e, 
	0x1c, 0xb8, 0xb5, 0x3e, 0xd4, 0x29, 0x73, 0xbe, 0x87, 0x7e, 0xb7, 0xbe, 
	0x54, 0xd6, 0x43, 0xbf, 0xc6, 0x54, 0x2e, 0x3e, 0xc0, 0x37, 0xbd, 0xbe, 
	0xc1, 0xf8, 0xe8, 0xbe, 0x4b, 0x1e, 0xa0, 0xbd, 0xa4, 0xaf, 0x41, 0x3e, 
	0x6d, 0x4a, 0x53, 0xbe, 0x75, 0x04, 0x4f, 0x3e, 0x78, 0xe0, 0xdf, 0xbd, 
	0x65, 0x3b, 0xf4, 0xbd, 0x72, 0x75, 0x39, 0x3f, 0x42, 0x62, 0x1c, 0x3f, 
	0xf2, 0x74, 0x83, 0x3e, 0x2e, 0xc6, 0x4b, 0x3e, 0x10, 0xd4, 0x08, 0xbf, 
	0x78, 0x53, 0x86, 0xbb, 0x7b, 0x3c, 0xbc, 0x3d, 0xb4, 0x55, 0xec, 0x3d, 
	0xe0, 0x42, 0xe3, 0x3d, 0xda, 0xc2, 0xc8, 0xbd, 0x8b, 0xdc, 0x1e, 0xbf, 
	0xb4, 0x2d, 0xbb, 0xbd, 0xbc, 0xd1, 0x09, 0x3f, 0x38, 0xe0, 0x94, 0x3e, 
	0x4e, 0x8c, 0xbf, 0x3e, 0x2d, 0x12, 0xec, 0xbd, 0x55, 0xc5, 0xf1, 0xbd, 
	0x5c, 0xaa, 0xbb, 0xbc, 0x3c, 0x45, 0x19, 0x3f, 0x92, 0x6a, 0x68, 0xbf, 
	0x9b, 0x48, 0x88, 0x3e, 0x9c, 0x7b, 0xe8, 0xbe, 0xe9, 0xed, 0xa7, 0x3d, 
	0x48, 0x6e, 0x7a, 0x3d, 0xec, 0xbd, 0x61, 0x3f, 0x27, 0xb0, 0xc1, 0x3e, 
	0x94, 0x04, 0xa1, 0x3e, 0xda, 0xa5, 0x82, 0xbf, 0x01, 0x82, 0x5f, 0xbe, 
	0x07, 0xa1, 0xa1, 0x3e, 0x24, 0xc9, 0xe8, 0x3e, 0x34, 0x85, 0xce, 0x3d, 
	0x11, 0x74, 0x8d, 0x3d, 0x44, 0x20, 0x2c, 0xbe, 0xd9, 0x07, 0x4e, 0x3e, 
	0x53, 0x2e, 0x62, 0xbf, 0x5d, 0x99, 0x92, 0xbe, 0xf7, 0x3f, 0x23, 0xbf, 
	0xef, 0x63, 0xd6, 0xbe, 0x62, 0x0f, 0x2a, 0xbe, 0x6c, 0x6f, 0xfd, 0x3d, 
	0xa0, 0xba, 0xbb, 0x3e, 0x80, 0xbf, 0x19, 0xbf, 0x08, 0x41, 0xb3, 0xbe, 
	0x8b, 0x6a, 0x0a, 0xbf, 0xb6, 0x35, 0x8c, 0x3e, 0x06, 0x7a, 0xd6, 0x3e, 
	0xd1, 0xe8, 0x69, 0xbe, 0x37, 0x2b, 0x74, 0x3e, 0x79, 0xdc, 0xd2, 0x3e, 
	0xc4, 0x5c, 0xf6, 0xbd, 0xe6, 0x0c, 0x6b, 0x3e, 0x62, 0xb7, 0x50, 0xbd, 
	0xbd, 0x67, 0x8b, 0xbd, 0xef, 0xbe, 0x62, 0xbe, 0xc0, 0xe3, 0x00, 0xbc, 
	0xca, 0x13, 0x23, 0x3e, 0x5e, 0x46, 0x21, 0x3e, 0xf2, 0x52, 0x6e, 0x3e, 
	0xd6, 0x09, 0xc6, 0xbe, 0xd8, 0x47, 0x64, 0xbf, 0x29, 0xce, 0x8b, 0xbe, 
	0xbd, 0xd9, 0x9f, 0x3e, 0x19, 0x16, 0x62, 0x3e, 0x4f, 0x8d, 0xa9, 0xbe, 
	0xef, 0x87, 0xf2, 0xbd, 0x74, 0x03, 0xa9, 0x3e, 0x76, 0x7b, 0xca, 0xbe, 
	0xc8, 0xe1, 0x12, 0x3f, 0xa4, 0x08, 0xfd, 0x3d, 0x80, 0xad, 0x08, 0x3e, 
	0xcc, 0xfc, 0x3b, 0x3e, 0xc1, 0x55, 0x56, 0x3e, 0xf0, 0x0c, 0x7c, 0x3e, 
	0xc3, 0x6f, 0x0d, 0x3f, 0xb7, 0x87, 0x8e, 0xbe, 0x01, 0xf4, 0xc7, 0x3e, 
	0x36, 0xf9, 0x6c, 0xbf, 0x10, 0xef, 0x45, 0x3e, 0x0e, 0x03, 0x83, 0xbd, 
	0xf9, 0x30, 0x7c, 0x3e, 0xc4, 0x11, 0x1d, 0xbf, 0xbe, 0x0b, 0x04, 0xbf, 
	0x91, 0x63, 0xbd, 0x3e, 0x89, 0x3c, 0x31, 0xbc, 0xf4, 0x31, 0xab, 0xbe, 
	0xa7, 0x0c, 0xca, 0xbe, 0x50, 0x76, 0x2a, 0xbe, 0x00, 0x8b, 0x79, 0xbd, 
	0x6a, 0xec, 0xeb, 0xbe, 0xf0, 0x11, 0x36, 0xbf, 0x53, 0xce, 0x21, 0x3f, 
	0xbe, 0x9d, 0xc9, 0x3e, 0x11, 0xbb, 0x83, 0xbe, 0x5c, 0x17, 0xf0, 0xbe, 
	0x11, 0x38, 0x18, 0x3e, 0xce, 0x77, 0x7b, 0x3e, 0xd0, 0x46, 0xad, 0x3c, 
	0x6f, 0xfb, 0xdc, 0xbe, 0xb9, 0xb4, 0xa9, 0x3d, 0x07, 0x79, 0xa1, 0x3e, 
	0x08, 0x31, 0x5d, 0x3c, 0x5e, 0x44, 0x64, 0xbd, 0x02, 0x63, 0x48, 0x3e, 
	0x8e, 0xbf, 0xbc, 0xbe, 0x1c, 0xc8, 0xe2, 0x3d, 0xf6, 0xda, 0x21, 0x3f, 
	0x22, 0x46, 0x3c, 0xbf, 0x34, 0xd5, 0x12, 0xbf, 0x0c, 0xcc, 0x20, 0xbd, 
	0xc1, 0xa2, 0x5f, 0xbe, 0xff, 0x76, 0x11, 0xbe, 0x50, 0x3f, 0x29, 0x3e, 
	0xab, 0x9d, 0x1f, 0x3e, 0x8b, 0x53, 0x71, 0x3e, 0x95, 0x3f, 0xf0, 0x3e, 
	0xcb, 0xd9, 0x13, 0xbe, 0x8a, 0xf5, 0xc8, 0xbc, 0xb2, 0x59, 0x4d, 0x3e, 
	0x22, 0x49, 0x63, 0xbe, 0x62, 0x26, 0x4c, 0xbf, 0xa8, 0x1b, 0x25, 0xbe, 
	0x5d, 0xfe, 0x13, 0xbf, 0xb7, 0x88, 0xaa, 0xbe, 0xa4, 0x54, 0xfe, 0xbe, 
	0x0b, 0x73, 0x74, 0xbd, 0x38, 0x77, 0x88, 0xbe, 0xc0, 0xaf, 0x10, 0x3c, 
	0xff, 0x84, 0xc0, 0xbc, 0x16, 0x5b, 0x9d, 0x3d, 0x7a, 0xcf, 0xf3, 0xbd, 
	0x72, 0x69, 0x6b, 0xbe, 0x55, 0x6a, 0x55, 0xbf, 0x12, 0x81, 0xff, 0xbe, 
	0x63, 0x2a, 0x32, 0xbf, 0x5f, 0xec, 0x1f, 0x3c, 0xcd, 0xad, 0x35, 0xbf, 
	0xaa, 0xae, 0x06, 0xbf, 0x50, 0x5d, 0x0f, 0xbd, 0x8d, 0xdc, 0x71, 0x3e, 
	0xeb, 0x1f, 0x4e, 0xbe, 0xfb, 0xe6, 0x0c, 0x3f, 0x47, 0x81, 0xd2, 0x3e, 
	0x66, 0x2c, 0x35, 0xbe, 0x76, 0x7a, 0x49, 0xbe, 0x54, 0x3b, 0xd9, 0xbd, 
	0x72, 0x18, 0x2a, 0xbf, 0x11, 0x91, 0xd0, 0x3e, 0x6a, 0x5b, 0xed, 0x3e, 
	0x2c, 0x9a, 0x37, 0xbf, 0x92, 0x0c, 0x25, 0x3d, 0xc7, 0x0a, 0x43, 0xbe, 
	0xc9, 0x97, 0x60, 0xbd, 0xd3, 0x1a, 0x9b, 0x3e, 0x65, 0xe3, 0xbe, 0xbe, 
	0x79, 0xe3, 0xc7, 0x3e, 0x39, 0x51, 0x21, 0xbb, 0xf1, 0x94, 0xba, 0xbe, 
	0xbd, 0x24, 0x16, 0xbe, 0xcb, 0x2c, 0x1c, 0xbe, 0x1a, 0xd5, 0xc5, 0xbe, 
	0xea, 0xc7, 0xd9, 0xbe, 0x26, 0xff, 0x8c, 0x3e, 0x0d, 0xb9, 0x96, 0xbf, 
	0x48, 0x4c, 0x0f, 0xbf, 0x1f, 0xa1, 0xa9, 0x3e, 0x2a, 0x05, 0x11, 0x3e, 
	0xec, 0xcc, 0xcd, 0x3d, 0x43, 0x17, 0xa2, 0xbe, 0xc3, 0xec, 0x0a, 0x3f, 
	0x99, 0xf2, 0x68, 0x3e, 0xa2, 0x13, 0x04, 0xbe, 0xac, 0x88, 0x91, 0xbd, 
	0x00, 0x9f, 0x6c, 0xbe, 0xb6, 0x27, 0x98, 0xbe, 0xac, 0xe1, 0x96, 0xbd, 
	0x5e, 0xb5, 0x7e, 0x3e, 0x56, 0x0b, 0x0c, 0x3e, 0xd9, 0xa5, 0x5e, 0xbf, 
	0xac, 0x74, 0x86, 0xbb, 0x64, 0x30, 0xd3, 0xbd, 0xc5, 0x32, 0x19, 0x3f, 
	0xea, 0x56, 0xd6, 0x3e, 0x81, 0xe7, 0xf7, 0x3d, 0x8e, 0xa0, 0x56, 0xbe, 
	0xbb, 0x48, 0xae, 0x3d, 0x15, 0x08, 0x08, 0x3f, 0x93, 0x6f, 0x38, 0xbf, 
	0xba, 0x75, 0xaf, 0x3e, 0x2a, 0x5d, 0x7b, 0xbe, 0x70, 0x11, 0x5c, 0x3e, 
	0x20, 0x70, 0x07, 0x3d, 0xb5, 0xbb, 0x4a, 0xbf, 0x6a, 0x65, 0xe4, 0x3c, 
	0xb0, 0x58, 0xb4, 0x3e, 0x6b, 0xf5, 0x91, 0xbf, 0x4e, 0xc2, 0x23, 0xbe, 
	0x80, 0x25, 0x8a, 0xbe, 0xef, 0x0c, 0xd8, 0x3e, 0x7c, 0xd2, 0xd0, 0xbd, 
	0x69, 0xbe, 0x35, 0xbe, 0x6e, 0x71, 0x1e, 0xbe, 0x15, 0xb0, 0x47, 0xbe, 
	0x17, 0x2d, 0xe6, 0xbe, 0x5f, 0x79, 0x26, 0xbe, 0xd6, 0x52, 0x99, 0x3e, 
	0xa8, 0x2e, 0xa5, 0x3e, 0x21, 0x2a, 0x4f, 0x3e, 0xfd, 0xfe, 0x06, 0xbe, 
	0x17, 0x6f, 0x89, 0xbc, 0xd1, 0xdd, 0xbb, 0x3c, 0x68, 0x47, 0x43, 0x3f, 
	0x4b, 0xd2, 0x9e, 0x3e, 0x8a, 0x22, 0x1f, 0xbe, 0xe4, 0xeb, 0x28, 0xbe, 
	0xda, 0x62, 0x3d, 0xbe, 0x0c, 0xf6, 0x05, 0xbf, 0x84, 0xd3, 0xd5, 0xbd, 
	0xb6, 0x45, 0xcf, 0x3d, 0x66, 0x0d, 0xdd, 0x3e, 0xb6, 0xf7, 0x23, 0xbf, 
	0x73, 0x3d, 0x76, 0x3d, 0x26, 0x6b, 0x75, 0x3e, 0x30, 0x03, 0x13, 0xbe, 
	0x33, 0x20, 0xe7, 0x3b, 0xfd, 0xd4, 0xa4, 0x3d, 0xf5, 0x6c, 0x13, 0xbe, 
	0x64, 0xd9, 0xce, 0xbd, 0x31, 0x64, 0xd1, 0x3e, 0xb6, 0x49, 0xaa, 0x3e, 
	0xbb, 0x1a, 0xb4, 0x3e, 0xc1, 0x72, 0x77, 0x3b, 0x49, 0xef, 0x35, 0x3e, 
	0xe4, 0x58, 0x63, 0xbd, 0xc6, 0x73, 0xef, 0x3c, 0xb8, 0xf8, 0xd2, 0xbb, 
	0xc2, 0xc6, 0x1f, 0xbe, 0x1a, 0x1f, 0xc7, 0xbe, 0x62, 0xb1, 0xa1, 0xbe, 
	0x36, 0x17, 0x56, 0x3e, 0xd0, 0x46, 0x1b, 0xbf, 0xe5, 0x9f, 0x53, 0xbf, 
	0x99, 0xe6, 0x03, 0xbd, 0x01, 0xac, 0x47, 0xbf, 0x50, 0x12, 0x17, 0xbf, 
	0x07, 0xbd, 0xf9, 0x3e, 0x73, 0x95, 0x72, 0x3e, 0xf0, 0xce, 0xee, 0x3c, 
	0x2b, 0xc4, 0x38, 0x3e, 0x2d, 0xb9, 0x4a, 0x3e, 0xa7, 0xda, 0x38, 0x3f, 
	0x29, 0x9d, 0xa3, 0xbf, 0x7b, 0x4b, 0x84, 0xbf, 0x91, 0x72, 0x2d, 0xbf, 
	0xed, 0xb2, 0x2e, 0xbe, 0xd1, 0x6e, 0x3e, 0xbc, 0x38, 0x91, 0x7e, 0xbe, 
	0x47, 0x25, 0x8c, 0xbe, 0xea, 0xa7, 0x97, 0xbe, 0x6c, 0x37, 0x6e, 0x3e, 
	0x47, 0x50, 0x20, 0x3f, 0x78, 0x09, 0x9e, 0xbc, 0xf0, 0x8e, 0xbe, 0xbd, 
	0xe6, 0x29, 0x53, 0xbe, 0xe8, 0xf2, 0xab, 0xbe, 0x6c, 0x52, 0x8d, 0x3e, 
	0x8b, 0xa6, 0x7f, 0xbe, 0xc5, 0xa9, 0x54, 0x3e, 0x6a, 0x41, 0x57, 0xbe, 
	0xdd, 0x17, 0x35, 0xbe, 0xf3, 0xb3, 0x26, 0xbe, 0x21, 0xd6, 0x55, 0xbe, 
	0x7b, 0x91, 0x74, 0x3d, 0x50, 0xab, 0x08, 0xbe, 0x68, 0x49, 0xea, 0xbd, 
	0x30, 0x59, 0x50, 0x3e, 0xd6, 0x06, 0xb0, 0x3e, 0xb7, 0xcd, 0x02, 0x3e, 
	0x1d, 0xbd, 0xad, 0xbd, 0x4d, 0xcc, 0x6f, 0x3e, 0x9f, 0x4d, 0x61, 0xbd, 
	0x01, 0x26, 0x25, 0xbb, 0xa2, 0x90, 0x82, 0x3e, 0x5b, 0x5e, 0x10, 0xbf, 
	0x6b, 0xc4, 0x66, 0xbe, 0x3c, 0x9e, 0xa5, 0xbe, 0xcf, 0x8e, 0x83, 0x3a, 
	0x85, 0xbf, 0x69, 0x3d, 0xf8, 0x1a, 0x6a, 0xbf, 0xd5, 0x9f, 0x51, 0xbf, 
	0xe8, 0x43, 0x9d, 0xbd, 0xb5, 0x29, 0x6c, 0xbe, 0x0b, 0xa2, 0xfd, 0x3d, 
	0xa3, 0xd1, 0x5f, 0x3c, 0xd5, 0x99, 0x8a, 0x3b, 0x39, 0xbe, 0x86, 0xbe, 
	0x72, 0xbf, 0x19, 0x3e, 0xd7, 0x11, 0xac, 0x3e, 0x20, 0x29, 0xa5, 0x3e, 
	0x82, 0x8b, 0xf6, 0x3d, 0xe4, 0x29, 0x18, 0xbf, 0x71, 0x6b, 0xe8, 0xbd, 
	0x74, 0x38, 0x02, 0xbf, 0xfa, 0x59, 0x6e, 0x3e, 0x40, 0x8d, 0xa8, 0xbb, 
	0x64, 0xd4, 0xa1, 0x3e, 0x8c, 0xd7, 0x51, 0x3e, 0x13, 0x6b, 0xbb, 0xbd, 
	0xd6, 0xf7, 0x82, 0xbf, 0xec, 0xed, 0x74, 0x3e, 0x60, 0x34, 0x87, 0x3d, 
	0x7d, 0x74, 0x2b, 0x3c, 0xe7, 0xe3, 0x39, 0xbf, 0x70, 0x9d, 0x3b, 0x3f, 
	0xc3, 0x8e, 0x93, 0x3e, 0xca, 0x7a, 0xd9, 0xbe, 0xb3, 0x70, 0x19, 0xbf, 
	0xa0, 0xd8, 0x47, 0xbe, 0x85, 0x7c, 0xe3, 0xbd, 0xe0, 0x5f, 0x0e, 0xbc, 
	0x2f, 0x58, 0xa5, 0x3e, 0x78, 0x44, 0x38, 0xbd, 0x83, 0x7c, 0x5f, 0x3c, 
	0xb2, 0x2d, 0xb6, 0x3e, 0x17, 0x7a, 0xf2, 0x3e, 0x23, 0x09, 0xb7, 0x3d, 
	0x0b, 0x14, 0x48, 0xbd, 0x08, 0x8b, 0x9b, 0xbd, 0x95, 0x98, 0x11, 0xbe, 
	0x80, 0x3e, 0xc8, 0x3d, 0xf6, 0x14, 0x28, 0xbb, 0x48, 0xb2, 0x81, 0x3e, 
	0xb9, 0xcc, 0x76, 0x3d, 0x67, 0xde, 0xb3, 0x3e, 0x63, 0x85, 0xda, 0xba, 
	0x20, 0x45, 0x17, 0x3e, 0x9b, 0x9f, 0x94, 0xbe, 0x04, 0xc2, 0x3b, 0x3e, 
	0x86, 0x75, 0x5e, 0xbe, 0x1b, 0x3b, 0xbc, 0x3e, 0xcf, 0x71, 0x15, 0xbd, 
	0x2f, 0xa7, 0xf7, 0x3c, 0x06, 0x27, 0xce, 0xbd, 0xce, 0x62, 0x3d, 0xbe, 
	0xb8, 0x6b, 0x46, 0xbe, 0x5c, 0x6d, 0x58, 0xbc, 0xc2, 0x57, 0x17, 0xbf, 
	0xc1, 0xf5, 0x61, 0x3e, 0xa0, 0x3f, 0x15, 0x3f, 0x76, 0x01, 0x88, 0x3e, 
	0xde, 0xea, 0xff, 0x3e, 0xe4, 0x6d, 0xd6, 0x3c, 0x81, 0x13, 0x10, 0x3e, 
	0x5c, 0x7a, 0x71, 0x3d, 0x5f, 0xa6, 0x8d, 0xbd, 0xfe, 0x99, 0x4c, 0xbf, 
	0x7a, 0x50, 0x17, 0x3f, 0xdc, 0xe0, 0x93, 0xbe, 0xa2, 0x82, 0x54, 0x3c, 
	0x95, 0x04, 0xfd, 0x3d, 0xfa, 0xd0, 0x7b, 0xbe, 0x63, 0x26, 0xb7, 0xbe, 
	0xef, 0xd9, 0xea, 0x3d, 0x61, 0xd2, 0x6b, 0xbe, 0xf3, 0x3f, 0x9e, 0x3e, 
	0x53, 0x2e, 0x0f, 0xbe, 0x9b, 0x07, 0xf6, 0x3e, 0x9e, 0x62, 0x8b, 0xbe, 
	0x45, 0x66, 0x94, 0x3c, 0xd7, 0x9a, 0xef, 0xbe, 0xc3, 0xbf, 0x63, 0x3e, 
	0x5d, 0x61, 0xe0, 0xbe, 0x63, 0x18, 0xd9, 0xbe, 0xb5, 0x55, 0xc9, 0x3e, 
	0xd6, 0x35, 0x15, 0x3f, 0x26, 0x8d, 0xbe, 0xbd, 0x5e, 0x1f, 0xf3, 0x3e, 
	0x98, 0xa8, 0x6f, 0x3d, 0xf9, 0x69, 0x9f, 0xbf, 0x28, 0x74, 0x5a, 0x3e, 
	0x62, 0x62, 0x02, 0x3f, 0x2c, 0xcc, 0x61, 0xbe, 0xcf, 0xd7, 0x2a, 0xbf, 
	0x14, 0xf5, 0xe8, 0x3d, 0xac, 0x9d, 0x87, 0xbe, 0x12, 0xbb, 0x91, 0xbd, 
	0xec, 0x32, 0xb1, 0xbe, 0x6f, 0x1c, 0xa1, 0x3d, 0x42, 0x46, 0x21, 0xbf, 
	0x1f, 0xb8, 0x0a, 0xbf, 0x7a, 0xdd, 0xb7, 0xbe, 0x20, 0xfe, 0x8f, 0xbc, 
	0x99, 0x0c, 0x0d, 0xbf, 0x86, 0x1f, 0x98, 0xbe, 0x17, 0xf3, 0x82, 0xbd, 
	0x79, 0x96, 0x8b, 0xbe, 0x02, 0xba, 0xf4, 0xbe, 0xee, 0xc8, 0x04, 0x3e, 
	0x1f, 0x74, 0x12, 0xbe, 0x2d, 0x99, 0x17, 0xbe, 0x77, 0x44, 0x9f, 0xbe, 
	0x01, 0x89, 0xd5, 0xbe, 0x0c, 0x36, 0x54, 0xbe, 0x8a, 0xfe, 0xff, 0xff, 
	0x04, 0x00, 0x00, 0x00, 0x08, 0x00, 0x00, 0x00, 0xff, 0xff, 0xff, 0xff, 
	0x48, 0x00, 0x00, 0x00, 0x9e, 0xfe, 0xff, 0xff, 0x04, 0x00, 0x00, 0x00, 
	0x28, 0x00, 0x00, 0x00, 0xe7, 0x2d, 0x0a, 0x3c, 0xbc, 0x07, 0x6e, 0x3d, 
	0xd1, 0xbd, 0x6d, 0xbc, 0x1a, 0xa0, 0x24, 0x3d, 0x8d, 0xeb, 0x95, 0xbd, 
	0xd4, 0xb4, 0x3b, 0xbc, 0x26, 0x10, 0xd8, 0xbc, 0x15, 0x4f, 0x51, 0x3d, 
	0x3d, 0x75, 0xb0, 0xbd, 0x55, 0x5d, 0x2e, 0x3d, 0xd2, 0xfe, 0xff, 0xff, 
	0x04, 0x00, 0x00, 0x00, 0x20, 0x01, 0x00, 0x00, 0x03, 0x92, 0xc0, 0xbe, 
	0x2f, 0xfb, 0xb9, 0xbf, 0xef, 0x65, 0x6b, 0xbf, 0x89, 0x94, 0xc0, 0x3e, 
	0x7b, 0xdb, 0x2e, 0xbf, 0xde, 0xb9, 0x9a, 0x3e, 0xaf, 0x28, 0x9d, 0x3f, 
	0xbc, 0xd8, 0x87, 0x3f, 0x61, 0x9e, 0x87, 0x3f, 0x89, 0x3f, 0x03, 0x3f, 
	0xc3, 0xeb, 0x85, 0xbf, 0xea, 0x91, 0x3f, 0xbf, 0x15, 0x46, 0x29, 0x3f, 
	0xf2, 0x85, 0x96, 0x3f, 0xef, 0xa5, 0x43, 0x3f, 0x6d, 0x3c, 0x12, 0x3f, 
	0xaa, 0xce, 0x12, 0x3e, 0xda, 0x0b, 0x17, 0xbd, 0x9d, 0xae, 0x24, 0xbf, 
	0xb8, 0x77, 0x63, 0x3f, 0x91, 0x3f, 0x67, 0x3f, 0x7c, 0x7a, 0xa1, 0xbe, 
	0xc3, 0xf2, 0xb1, 0x3f, 0x9d, 0x90, 0x22, 0xbf, 0xc1, 0xf6, 0xb1, 0x3e, 
	0x5a, 0x12, 0x68, 0x3f, 0x8a, 0x2a, 0x1b, 0x3e, 0x62, 0xdd, 0x36, 0x3d, 
	0x53, 0xbe, 0x81, 0x3f, 0x8d, 0xbc, 0x12, 0x3f, 0x06, 0x87, 0x37, 0x3f, 
	0x89, 0x88, 0x8e, 0x3f, 0xe4, 0x10, 0x82, 0x3f, 0x83, 0xa9, 0x9d, 0xbe, 
	0x64, 0x05, 0xed, 0x3e, 0x04, 0x73, 0x76, 0x3e, 0x4e, 0x2b, 0x8f, 0xbd, 
	0x30, 0xbf, 0x26, 0xbd, 0xf1, 0xd7, 0x84, 0xbe, 0x78, 0xd0, 0x81, 0xbd, 
	0x08, 0xaf, 0xdc, 0xbd, 0x6f, 0xfd, 0x89, 0x3c, 0x81, 0xf5, 0x76, 0x3b, 
	0xa9, 0x76, 0x53, 0xbe, 0x55, 0xbd, 0x21, 0xbe, 0xf5, 0xdd, 0x5a, 0x3f, 
	0x89, 0xd6, 0x66, 0x3e, 0x27, 0x45, 0x27, 0x3e, 0xe0, 0x7e, 0x71, 0x3f, 
	0xf4, 0x54, 0xab, 0x3d, 0x82, 0xa0, 0x7c, 0xbc, 0x4a, 0x6e, 0x33, 0x3f, 
	0x9d, 0x85, 0x17, 0xbe, 0x62, 0x53, 0x92, 0xbe, 0x3a, 0xb0, 0x03, 0xbe, 
	0x52, 0x2a, 0x55, 0x3f, 0x62, 0x3b, 0xc1, 0x3e, 0xae, 0x91, 0xe9, 0x3e, 
	0x7a, 0x18, 0x14, 0x3f, 0x4a, 0xf2, 0x15, 0xbf, 0x31, 0xa6, 0x4d, 0x3f, 
	0xa0, 0x33, 0x5f, 0xbe, 0x86, 0xeb, 0x15, 0x3e, 0xf3, 0xe2, 0x9b, 0xbe, 
	0x2e, 0x76, 0xaf, 0x3e, 0xbf, 0x65, 0x6a, 0x3f, 0x16, 0x53, 0x40, 0xbf, 
	0x7b, 0x82, 0xf9, 0x3e, 0xe6, 0x11, 0xbc, 0x3e, 0x85, 0x15, 0x3e, 0x3f, 
	0xc6, 0x3d, 0x01, 0xbf, 0xe8, 0x3e, 0xb2, 0xbf, 0x00, 0x00, 0x06, 0x00, 
	0x08, 0x00, 0x04, 0x00, 0x06, 0x00, 0x00, 0x00, 0x04, 0x00, 0x00, 0x00, 
	0x20, 0x00, 0x00, 0x00, 0x6a, 0xc6, 0xca, 0x3e, 0xf0, 0x38, 0xeb, 0xbd, 
	0x47, 0x1c, 0xf9, 0xbb, 0xef, 0x88, 0x8e, 0x3d, 0x39, 0x9b, 0x4f, 0xbc, 
	0x99, 0x2a, 0x08, 0x3d, 0xc4, 0x5b, 0xfd, 0xbc, 0x50, 0x73, 0x99, 0x3e, 
	0x38, 0xfa, 0xff, 0xff, 0x3c, 0xfa, 0xff, 0xff, 0x0f, 0x00, 0x00, 0x00, 
	0x4d, 0x4c, 0x49, 0x52, 0x20, 0x43, 0x6f, 0x6e, 0x76, 0x65, 0x72, 0x74, 
	0x65, 0x64, 0x2e, 0x00, 0x01, 0x00, 0x00, 0x00, 0x14, 0x00, 0x00, 0x00, 
	0x00, 0x00, 0x0e, 0x00, 0x18, 0x00, 0x14, 0x00, 0x10, 0x00, 0x0c, 0x00, 
	0x08, 0x00, 0x04, 0x00, 0x0e, 0x00, 0x00, 0x00, 0x14, 0x00, 0x00, 0x00, 
	0x1c, 0x00, 0x00, 0x00, 0x4c, 0x01, 0x00, 0x00, 0x50, 0x01, 0x00, 0x00, 
	0x54, 0x01, 0x00, 0x00, 0x04, 0x00, 0x00, 0x00, 0x6d, 0x61, 0x69, 0x6e, 
	0x00, 0x00, 0x00, 0x00, 0x04, 0x00, 0x00, 0x00, 0xe4, 0x00, 0x00, 0x00, 
	0x80, 0x00, 0x00, 0x00, 0x48, 0x00, 0x00, 0x00, 0x04, 0x00, 0x00, 0x00, 
	0x9a, 0xff, 0xff, 0xff, 0x14, 0x00, 0x00, 0x00, 0x00, 0x00, 0x00, 0x08, 
	0x10, 0x00, 0x00, 0x00, 0x14, 0x00, 0x00, 0x00, 0x03, 0x00, 0x00, 0x00, 
	0xbc, 0xfa, 0xff, 0xff, 0x01, 0x00, 0x00, 0x00, 0x09, 0x00, 0x00, 0x00, 
	0x03, 0x00, 0x00, 0x00, 0x08, 0x00, 0x00, 0x00, 0x05, 0x00, 0x00, 0x00, 
	0x03, 0x00, 0x00, 0x00, 0x00, 0x00, 0x0a, 0x00, 0x10, 0x00, 0x0c, 0x00, 
	0x08, 0x00, 0x04, 0x00, 0x0a, 0x00, 0x00, 0x00, 0x0c, 0x00, 0x00, 0x00, 
	0x10, 0x00, 0x00, 0x00, 0x02, 0x00, 0x00, 0x00, 0x01, 0x00, 0x00, 0x00, 
	0x08, 0x00, 0x00, 0x00, 0x02, 0x00, 0x00, 0x00, 0x07, 0x00, 0x00, 0x00, 
	0x04, 0x00, 0x00, 0x00, 0x00, 0x00, 0x0e, 0x00, 0x1a, 0x00, 0x14, 0x00, 
	0x10, 0x00, 0x0c, 0x00, 0x0b, 0x00, 0x04, 0x00, 0x0e, 0x00, 0x00, 0x00, 
	0x24, 0x00, 0x00, 0x00, 0x00, 0x00, 0x00, 0x05, 0x34, 0x00, 0x00, 0x00, 
	0x38, 0x00, 0x00, 0x00, 0x01, 0x00, 0x00, 0x00, 0x00, 0x00, 0x0e, 0x00, 
	0x18, 0x00, 0x17, 0x00, 0x10, 0x00, 0x0c, 0x00, 0x08, 0x00, 0x04, 0x00, 
	0x0e, 0x00, 0x00, 0x00, 0x02, 0x00, 0x00, 0x00, 0x02, 0x00, 0x00, 0x00, 
	0x02, 0x00, 0x00, 0x00, 0x02, 0x00, 0x00, 0x00, 0x00, 0x00, 0x00, 0x01, 
	0x01, 0x00, 0x00, 0x00, 0x07, 0x00, 0x00, 0x00, 0x01, 0x00, 0x00, 0x00, 
	0x06, 0x00, 0x00, 0x00, 0x00, 0x00, 0x0e, 0x00, 0x14, 0x00, 0x00, 0x00, 
	0x10, 0x00, 0x0c, 0x00, 0x0b, 0x00, 0x04, 0x00, 0x0e, 0x00, 0x00, 0x00, 
	0x1c, 0x00, 0x00, 0x00, 0x00, 0x00, 0x00, 0x01, 0x28, 0x00, 0x00, 0x00, 
	0x2c, 0x00, 0x00, 0x00, 0x0c, 0x00, 0x14, 0x00, 0x13, 0x00, 0x0c, 0x00, 
	0x08, 0x00, 0x07, 0x00, 0x0c, 0x00, 0x00, 0x00, 0x00, 0x00, 0x00, 0x01, 
	0x01, 0x00, 0x00, 0x00, 0x01, 0x00, 0x00, 0x00, 0x00, 0x00, 0x00, 0x01, 
	0x01, 0x00, 0x00, 0x00, 0x06, 0x00, 0x00, 0x00, 0x03, 0x00, 0x00, 0x00, 
	0x00, 0x00, 0x00, 0x00, 0x02, 0x00, 0x00, 0x00, 0x01, 0x00, 0x00, 0x00, 
	0x01, 0x00, 0x00, 0x00, 0x09, 0x00, 0x00, 0x00, 0x01, 0x00, 0x00, 0x00, 
	0x00, 0x00, 0x00, 0x00, 0x0a, 0x00, 0x00, 0x00, 0xf8, 0x03, 0x00, 0x00, 
	0x84, 0x03, 0x00, 0x00, 0x14, 0x03, 0x00, 0x00, 0xbc, 0x02, 0x00, 0x00, 
	0x6c, 0x02, 0x00, 0x00, 0x08, 0x02, 0x00, 0x00, 0x34, 0x01, 0x00, 0x00, 
	0xc0, 0x00, 0x00, 0x00, 0x60, 0x00, 0x00, 0x00, 0x04, 0x00, 0x00, 0x00, 
	0x46, 0xfc, 0xff, 0xff, 0x00, 0x00, 0x00, 0x01, 0x14, 0x00, 0x00, 0x00, 
	0x1c, 0x00, 0x00, 0x00, 0x1c, 0x00, 0x00, 0x00, 0x0a, 0x00, 0x00, 0x00, 
	0x34, 0x00, 0x00, 0x00, 0x02, 0x00, 0x00, 0x00, 0xff, 0xff, 0xff, 0xff, 
	0x0a, 0x00, 0x00, 0x00, 0x28, 0xfc, 0xff, 0xff, 0x19, 0x00, 0x00, 0x00, 
	0x53, 0x74, 0x61, 0x74, 0x65, 0x66, 0x75, 0x6c, 0x50, 0x61, 0x72, 0x74, 
	0x69, 0x74, 0x69, 0x6f, 0x6e, 0x65, 0x64, 0x43, 0x61, 0x6c, 0x6c, 0x3a, 
	0x30, 0x00, 0x00, 0x00, 0x02, 0x00, 0x00, 0x00, 0x01, 0x00, 0x00, 0x00, 
	0x0a, 0x00, 0x00, 0x00, 0x9e, 0xfc, 0xff, 0xff, 0x00, 0x00, 0x00, 0x01, 
	0x14, 0x00, 0x00, 0x00, 0x1c, 0x00, 0x00, 0x00, 0x1c, 0x00, 0x00, 0x00, 
	0x09, 0x00, 0x00, 0x00, 0x38, 0x00, 0x00, 0x00, 0x02, 0x00, 0x00, 0x00, 
	0xff, 0xff, 0xff, 0xff, 0x48, 0x00, 0x00, 0x00, 0x80, 0xfc, 0xff, 0xff, 
	0x1e, 0x00, 0x00, 0x00, 0x73, 0x65, 0x71, 0x75, 0x65, 0x6e, 0x74, 0x69, 
	0x61, 0x6c, 0x5f, 0x31, 0x2f, 0x66, 0x6c, 0x61, 0x74, 0x74, 0x65, 0x6e, 
	0x5f, 0x31, 0x2f, 0x52, 0x65, 0x73, 0x68, 0x61, 0x70, 0x65, 0x00, 0x00, 
	0x02, 0x00, 0x00, 0x00, 0x01, 0x00, 0x00, 0x00, 0x48, 0x00, 0x00, 0x00, 
	0xfa, 0xfc, 0xff, 0xff, 0x00, 0x00, 0x00, 0x01, 0x14, 0x00, 0x00, 0x00, 
	0x24, 0x00, 0x00, 0x00, 0x24, 0x00, 0x00, 0x00, 0x08, 0x00, 0x00, 0x00, 
	0x44, 0x00, 0x00, 0x00, 0x04, 0x00, 0x00, 0x00, 0xff, 0xff, 0xff, 0xff, 
	0x03, 0x00, 0x00, 0x00, 0x03, 0x00, 0x00, 0x00, 0x08, 0x00, 0x00, 0x00, 
	0xe4, 0xfc, 0xff, 0xff, 0x22, 0x00, 0x00, 0x00, 0x73, 0x65, 0x71, 0x75, 
	0x65, 0x6e, 0x74, 0x69, 0x61, 0x6c, 0x5f, 0x31, 0x2f, 0x6d, 0x61, 0x78, 
	0x5f, 0x70, 0x6f, 0x6f, 0x6c, 0x69, 0x6e, 0x67, 0x32, 0x64, 0x2f, 0x4d, 
	0x61, 0x78, 0x50, 0x6f, 0x6f, 0x6c, 0x00, 0x00, 0x04, 0x00, 0x00, 0x00, 
	0x01, 0x00, 0x00, 0x00, 0x03, 0x00, 0x00, 0x00, 0x03, 0x00, 0x00, 0x00, 
	0x08, 0x00, 0x00, 0x00, 0x6a, 0xfd, 0xff, 0xff, 0x00, 0x00, 0x00, 0x01, 
	0x14, 0x00, 0x00, 0x00, 0x24, 0x00, 0x00, 0x00, 0x24, 0x00, 0x00, 0x00, 
	0x07, 0x00, 0x00, 0x00, 0xa4, 0x00, 0x00, 0x00, 0x04, 0x00, 0x00, 0x00, 
	0xff, 0xff, 0xff, 0xff, 0x06, 0x00, 0x00, 0x00, 0x06, 0x00, 0x00, 0x00, 
	0x08, 0x00, 0x00, 0x00, 0x54, 0xfd, 0xff, 0xff, 0x82, 0x00, 0x00, 0x00, 
	0x73, 0x65, 0x71, 0x75, 0x65, 0x6e, 0x74, 0x69, 0x61, 0x6c, 0x5f, 0x31, 
	0x2f, 0x63, 0x6f, 0x6e, 0x76, 0x32, 0x64, 0x5f, 0x31, 0x2f, 0x52, 0x65, 
	0x6c, 0x75, 0x3b, 0x73, 0x65, 0x71, 0x75, 0x65, 0x6e, 0x74, 0x69, 0x61, 
	0x6c, 0x5f, 0x31, 0x2f, 0x63, 0x6f, 0x6e, 0x76, 0x32, 0x64, 0x5f, 0x31, 
	0x2f, 0x42, 0x69, 0x61, 0x73, 0x41, 0x64, 0x64, 0x3b, 0x73, 0x65, 0x71, 
	0x75, 0x65, 0x6e, 0x74, 0x69, 0x61, 0x6c, 0x5f, 0x31, 0x2f, 0x63, 0x6f, 
	0x6e, 0x76, 0x32, 0x64, 0x5f, 0x31, 0x2f, 0x43, 0x6f, 0x6e, 0x76, 0x32, 
	0x44, 0x3b, 0x73, 0x65, 0x71, 0x75, 0x65, 0x6e, 0x74, 0x69, 0x61, 0x6c, 
	0x5f, 0x31, 0x2f, 0x63, 0x6f, 0x6e, 0x76, 0x32, 0x64, 0x5f, 0x31, 0x2f, 
	0x42, 0x69, 0x61, 0x73, 0x41, 0x64, 0x64, 0x2f, 0x52, 0x65, 0x61, 0x64, 
	0x56, 0x61, 0x72, 0x69, 0x61, 0x62, 0x6c, 0x65, 0x4f, 0x70, 0x00, 0x00, 
	0x04, 0x00, 0x00, 0x00, 0x01, 0x00, 0x00, 0x00, 0x06, 0x00, 0x00, 0x00, 
	0x06, 0x00, 0x00, 0x00, 0x08, 0x00, 0x00, 0x00, 0xaa, 0xfe, 0xff, 0xff, 
	0x00, 0x00, 0x00, 0x01, 0x10, 0x00, 0x00, 0x00, 0x10, 0x00, 0x00, 0x00, 
	0x06, 0x00, 0x00, 0x00, 0x28, 0x00, 0x00, 0x00, 0x0c, 0xfe, 0xff, 0xff, 
	0x1b, 0x00, 0x00, 0x00, 0x73, 0x65, 0x71, 0x75, 0x65, 0x6e, 0x74, 0x69, 
	0x61, 0x6c, 0x5f, 0x31, 0x2f, 0x64, 0x65, 0x6e, 0x73, 0x65, 0x5f, 0x31, 
	0x2f, 0x4d, 0x61, 0x74, 0x4d, 0x75, 0x6c, 0x00, 0x02, 0x00, 0x00, 0x00, 
	0x0a, 0x00, 0x00, 0x00, 0x48, 0x00, 0x00, 0x00, 0x00, 0x00, 0x16, 0x00, 
	0x1c, 0x00, 0x18, 0x00, 0x17, 0x00, 0x10, 0x00, 0x0c, 0x00, 0x08, 0x00, 
	0x00, 0x00, 0x00, 0x00, 0x00, 0x00, 0x07, 0x00, 0x16, 0x00, 0x00, 0x00, 
	0x00, 0x00, 0x00, 0x01, 0x14, 0x00, 0x00, 0x00, 0x14, 0x00, 0x00, 0x00, 
	0x05, 0x00, 0x00, 0x00, 0x00, 0x00, 0x00, 0x02, 0x2c, 0x00, 0x00, 0x00, 
	0x70, 0xfe, 0xff, 0xff, 0x1c, 0x00, 0x00, 0x00, 0x73, 0x65, 0x71, 0x75, 
	0x65, 0x6e, 0x74, 0x69, 0x61, 0x6c, 0x5f, 0x31, 0x2f, 0x66, 0x6c, 0x61, 
	0x74, 0x74, 0x65, 0x6e, 0x5f, 0x31, 0x2f, 0x43, 0x6f, 0x6e, 0x73, 0x74, 
	0x00, 0x00, 0x00, 0x00, 0x01, 0x00, 0x00, 0x00, 0x02, 0x00, 0x00, 0x00, 
	0x56, 0xff, 0xff, 0xff, 0x00, 0x00, 0x00, 0x01, 0x10, 0x00, 0x00, 0x00, 
	0x10, 0x00, 0x00, 0x00, 0x04, 0x00, 0x00, 0x00, 0x38, 0x00, 0x00, 0x00, 
	0xb8, 0xfe, 0xff, 0xff, 0x2b, 0x00, 0x00, 0x00, 0x73, 0x65, 0x71, 0x75, 
	0x65, 0x6e, 0x74, 0x69, 0x61, 0x6c, 0x5f, 0x31, 0x2f, 0x64, 0x65, 0x6e, 
	0x73, 0x65, 0x5f, 0x31, 0x2f, 0x42, 0x69, 0x61, 0x73, 0x41, 0x64, 0x64, 
	0x2f, 0x52, 0x65, 0x61, 0x64, 0x56, 0x61, 0x72, 0x69, 0x61, 0x62, 0x6c, 
	0x65, 0x4f, 0x70, 0x00, 0x01, 0x00, 0x00, 0x00, 0x0a, 0x00, 0x00, 0x00, 
	0xaa, 0xff, 0xff, 0xff, 0x00, 0x00, 0x00, 0x01, 0x10, 0x00, 0x00, 0x00, 
	0x10, 0x00, 0x00, 0x00, 0x03, 0x00, 0x00, 0x00, 0x2c, 0x00, 0x00, 0x00, 
	0x0c, 0xff, 0xff, 0xff, 0x1c, 0x00, 0x00, 0x00, 0x73, 0x65, 0x71, 0x75, 
	0x65, 0x6e, 0x74, 0x69, 0x61, 0x6c, 0x5f, 0x31, 0x2f, 0x63, 0x6f, 0x6e, 
	0x76, 0x32, 0x64, 0x5f, 0x31, 0x2f, 0x43, 0x6f, 0x6e, 0x76, 0x32, 0x44, 
	0x00, 0x00, 0x00, 0x00, 0x04, 0x00, 0x00, 0x00, 0x08, 0x00, 0x00, 0x00, 
	0x03, 0x00, 0x00, 0x00, 0x03, 0x00, 0x00, 0x00, 0x01, 0x00, 0x00, 0x00, 
	0x00, 0x00, 0x16, 0x00, 0x18, 0x00, 0x14, 0x00, 0x00, 0x00, 0x10, 0x00, 
	0x0c, 0x00, 0x08, 0x00, 0x00, 0x00, 0x00, 0x00, 0x00, 0x00, 0x07, 0x00, 
	0x16, 0x00, 0x00, 0x00, 0x00, 0x00, 0x00, 0x01, 0x10, 0x00, 0x00, 0x00, 
	0x10, 0x00, 0x00, 0x00, 0x02, 0x00, 0x00, 0x00, 0x3c, 0x00, 0x00, 0x00, 
	0x78, 0xff, 0xff, 0xff, 0x2c, 0x00, 0x00, 0x00, 0x73, 0x65, 0x71, 0x75, 
	0x65, 0x6e, 0x74, 0x69, 0x61, 0x6c, 0x5f, 0x31, 0x2f, 0x63, 0x6f, 0x6e, 
	0x76, 0x32, 0x64, 0x5f, 0x31, 0x2f, 0x42, 0x69, 0x61, 0x73, 0x41, 0x64, 
	0x64, 0x2f, 0x52, 0x65, 0x61, 0x64, 0x56, 0x61, 0x72, 0x69, 0x61, 0x62, 
	0x6c, 0x65, 0x4f, 0x70, 0x00, 0x00, 0x00, 0x00, 0x01, 0x00, 0x00, 0x00, 
	0x08, 0x00, 0x00, 0x00, 0x00, 0x00, 0x16, 0x00, 0x1c, 0x00, 0x18, 0x00, 
	0x00, 0x00, 0x14, 0x00, 0x10, 0x00, 0x0c, 0x00, 0x00, 0x00, 0x00, 0x00, 
	0x08, 0x00, 0x07, 0x00, 0x16, 0x00, 0x00, 0x00, 0x00, 0x00, 0x00, 0x01, 
	0x14, 0x00, 0x00, 0x00, 0x28, 0x00, 0x00, 0x00, 0x28, 0x00, 0x00, 0x00, 
	0x01, 0x00, 0x00, 0x00, 0x48, 0x00, 0x00, 0x00, 0x04, 0x00, 0x00, 0x00, 
	0xff, 0xff, 0xff, 0xff, 0x08, 0x00, 0x00, 0x00, 0x08, 0x00, 0x00, 0x00, 
	0x01, 0x00, 0x00, 0x00, 0x04, 0x00, 0x04, 0x00, 0x04, 0x00, 0x00, 0x00, 
	0x20, 0x00, 0x00, 0x00, 0x73, 0x65, 0x72, 0x76, 0x69, 0x6e, 0x67, 0x5f, 
	0x64, 0x65, 0x66, 0x61, 0x75, 0x6c, 0x74, 0x5f, 0x63, 0x6f, 0x6e, 0x76, 
	0x32, 0x64, 0x5f, 0x31, 0x5f, 0x69, 0x6e, 0x70, 0x75, 0x74, 0x3a, 0x30, 
	0x00, 0x00, 0x00, 0x00, 0x04, 0x00, 0x00, 0x00, 0x01, 0x00, 0x00, 0x00, 
	0x08, 0x00, 0x00, 0x00, 0x08, 0x00, 0x00, 0x00, 0x01, 0x00, 0x00, 0x00, 
	0x04, 0x00, 0x00, 0x00, 0x40, 0x00, 0x00, 0x00, 0x24, 0x00, 0x00, 0x00, 
	0x14, 0x00, 0x00, 0x00, 0x04, 0x00, 0x00, 0x00, 0xdc, 0xff, 0xff, 0xff, 
	0x09, 0x00, 0x00, 0x00, 0x00, 0x00, 0x00, 0x09, 0xe8, 0xff, 0xff, 0xff, 
	0x16, 0x00, 0x00, 0x00, 0x00, 0x00, 0x00, 0x16, 0xf4, 0xff, 0xff, 0xff, 
	0x11, 0x00, 0x00, 0x00, 0x00, 0x00, 0x00, 0x11, 0x0c, 0x00, 0x0c, 0x00, 
	0x0b, 0x00, 0x00, 0x00, 0x00, 0x00, 0x04, 0x00, 0x0c, 0x00, 0x00, 0x00, 
	0x03, 0x00, 0x00, 0x00, 0x00, 0x00, 0x00, 0x03
};
const int digits_model_len = 5408;