#ifdef __has_attribute
#define HAVE_ATTRIBUTE(x) __has_attribute(x)
#else
#define HAVE_ATTRIBUTE(x) 0
#endif
#if HAVE_ATTRIBUTE(aligned) || (defined(__GNUC__) && !defined(__clang__))
#define DATA_ALIGN_ATTRIBUTE __attribute__((aligned(4)))
#else
#define DATA_ALIGN_ATTRIBUTE
#endif

const unsigned char echo_model[] DATA_ALIGN_ATTRIBUTE = {
	0x1c, 0x00, 0x00, 0x00, 0x54, 0x46, 0x4c, 0x33, 0x14, 0x00, 0x20, 0x00, 
	0x1c, 0x00, 0x18, 0x00, 0x14, 0x00, 0x10, 0x00, 0x0c, 0x00, 0x00, 0x00, 
	0x08, 0x00, 0x04, 0x00, 0x14, 0x00, 0x00, 0x00, 0x1c, 0x00, 0x00, 0x00, 
	0x8c, 0x00, 0x00, 0x00, 0xe4, 0x00, 0x00, 0x00, 0x28, 0xa5, 0x00, 0x00, 
	0x38, 0xa5, 0x00, 0x00, 0x2c, 0xac, 0x00, 0x00, 0x03, 0x00, 0x00, 0x00, 
	0x01, 0x00, 0x00, 0x00, 0x04, 0x00, 0x00, 0x00, 0x02, 0x5a, 0xff, 0xff, 
	0x0c, 0x00, 0x00, 0x00, 0x1c, 0x00, 0x00, 0x00, 0x3c, 0x00, 0x00, 0x00, 
	0x0f, 0x00, 0x00, 0x00, 0x73, 0x65, 0x72, 0x76, 0x69, 0x6e, 0x67, 0x5f, 
	0x64, 0x65, 0x66, 0x61, 0x75, 0x6c, 0x74, 0x00, 0x01, 0x00, 0x00, 0x00, 
	0x04, 0x00, 0x00, 0x00, 0x90, 0xff, 0xff, 0xff, 0x0b, 0x00, 0x00, 0x00, 
	0x04, 0x00, 0x00, 0x00, 0x08, 0x00, 0x00, 0x00, 0x64, 0x65, 0x6e, 0x73, 
	0x65, 0x5f, 0x34, 0x39, 0x00, 0x00, 0x00, 0x00, 0x01, 0x00, 0x00, 0x00, 
	0x04, 0x00, 0x00, 0x00, 0xd2, 0x5b, 0xff, 0xff, 0x04, 0x00, 0x00, 0x00, 
	0x0f, 0x00, 0x00, 0x00, 0x63, 0x6f, 0x6e, 0x76, 0x32, 0x64, 0x5f, 0x33, 
	0x34, 0x5f, 0x69, 0x6e, 0x70, 0x75, 0x74, 0x00, 0x02, 0x00, 0x00, 0x00, 
	0x34, 0x00, 0x00, 0x00, 0x04, 0x00, 0x00, 0x00, 0xdc, 0xff, 0xff, 0xff, 
	0x0e, 0x00, 0x00, 0x00, 0x04, 0x00, 0x00, 0x00, 0x13, 0x00, 0x00, 0x00, 
	0x43, 0x4f, 0x4e, 0x56, 0x45, 0x52, 0x53, 0x49, 0x4f, 0x4e, 0x5f, 0x4d, 
	0x45, 0x54, 0x41, 0x44, 0x41, 0x54, 0x41, 0x00, 0x08, 0x00, 0x0c, 0x00, 
	0x08, 0x00, 0x04, 0x00, 0x08, 0x00, 0x00, 0x00, 0x0d, 0x00, 0x00, 0x00, 
	0x04, 0x00, 0x00, 0x00, 0x13, 0x00, 0x00, 0x00, 0x6d, 0x69, 0x6e, 0x5f, 
	0x72, 0x75, 0x6e, 0x74, 0x69, 0x6d, 0x65, 0x5f, 0x76, 0x65, 0x72, 0x73, 
	0x69, 0x6f, 0x6e, 0x00, 0x0f, 0x00, 0x00, 0x00, 0x40, 0xa4, 0x00, 0x00, 
	0x38, 0xa4, 0x00, 0x00, 0xb0, 0xa3, 0x00, 0x00, 0x58, 0xa3, 0x00, 0x00, 
	0x48, 0x9f, 0x00, 0x00, 0x2c, 0x9f, 0x00, 0x00, 0xf4, 0x9e, 0x00, 0x00, 
	0xdc, 0x9e, 0x00, 0x00, 0xac, 0x00, 0x00, 0x00, 0xa4, 0x00, 0x00, 0x00, 
	0x9c, 0x00, 0x00, 0x00, 0x94, 0x00, 0x00, 0x00, 0x8c, 0x00, 0x00, 0x00, 
	0x6c, 0x00, 0x00, 0x00, 0x04, 0x00, 0x00, 0x00, 0x8a, 0x5c, 0xff, 0xff, 
	0x04, 0x00, 0x00, 0x00, 0x58, 0x00, 0x00, 0x00, 0x0c, 0x00, 0x00, 0x00, 
	0x08, 0x00, 0x0e, 0x00, 0x08, 0x00, 0x04, 0x00, 0x08, 0x00, 0x00, 0x00, 
	0x10, 0x00, 0x00, 0x00, 0x28, 0x00, 0x00, 0x00, 0x00, 0x00, 0x06, 0x00, 
	0x08, 0x00, 0x04, 0x00, 0x06, 0x00, 0x00, 0x00, 0x04, 0x00, 0x00, 0x00, 
	0x01, 0x00, 0x00, 0x00, 0xea, 0x03, 0x00, 0x00, 0x00, 0x00, 0x0a, 0x00, 
	0x10, 0x00, 0x0c, 0x00, 0x08, 0x00, 0x04, 0x00, 0x0a, 0x00, 0x00, 0x00, 
	0x02, 0x00, 0x00, 0x00, 0x02, 0x00, 0x00, 0x00, 0x04, 0x00, 0x00, 0x00, 
	0x06, 0x00, 0x00, 0x00, 0x32, 0x2e, 0x31, 0x31, 0x2e, 0x30, 0x00, 0x00, 
	0xee, 0x5c, 0xff, 0xff, 0x04, 0x00, 0x00, 0x00, 0x10, 0x00, 0x00, 0x00, 
	0x32, 0x2e, 0x33, 0x2e, 0x30, 0x00, 0x00, 0x00, 0x00, 0x00, 0x00, 0x00, 
	0x00, 0x00, 0x00, 0x00, 0xb0, 0x55, 0xff, 0xff, 0xb4, 0x55, 0xff, 0xff, 
	0xb8, 0x55, 0xff, 0xff, 0xbc, 0x55, 0xff, 0xff, 0x1a, 0x5d, 0xff, 0xff, 
	0x04, 0x00, 0x00, 0x00, 0x20, 0x9e, 0x00, 0x00, 0xf6, 0x05, 0xf0, 0xef, 
	0xf2, 0x06, 0x03, 0xff, 0x11, 0x03, 0xfa, 0x06, 0xfd, 0xf2, 0xff, 0x0f, 
	0x05, 0xfc, 0xec, 0xfb, 0xf9, 0x02, 0xf7, 0xf7, 0xfc, 0xf4, 0x05, 0xfb, 
	0x0a, 0x01, 0xf7, 0x04, 0xf6, 0x06, 0x00, 0xfd, 0x0c, 0x01, 0x0b, 0xf1, 
	0x0a, 0x01, 0x0c, 0xf3, 0xf6, 0x08, 0x02, 0x0a, 0xf0, 0x07, 0xed, 0x0c, 
	0xfd, 0x01, 0xff, 0x02, 0x00, 0xfa, 0xfa, 0xf2, 0xfb, 0xfa, 0x07, 0x0e, 
	0xff, 0x03, 0xfc, 0xf4, 0xff, 0xf6, 0xf7, 0x03, 0x0f, 0xf9, 0xf0, 0xfb, 
	0xfd, 0x0a, 0xf4, 0xf2, 0x0b, 0xfb, 0xfd, 0x05, 0xf8, 0x00, 0x00, 0x03, 
	0xfa, 0xff, 0x05, 0x0d, 0x0b, 0x00, 0x0e, 0x0a, 0x0a, 0x08, 0x02, 0x01, 
	0xf3, 0xf9, 0xf4, 0xf8, 0xfd, 0xf0, 0x0e, 0x11, 0xf7, 0xf5, 0xfe, 0xf1, 
	0xee, 0xfc, 0xf4, 0x07, 0xf5, 0xf7, 0xfe, 0xf6, 0xf9, 0x08, 0xfe, 0xf6, 
	0x00, 0xfc, 0xed, 0xfa, 0x0e, 0xee, 0xf2, 0x08, 0x05, 0x08, 0x02, 0xf8, 
	0x00, 0x10, 0xf3, 0xfe, 0xf1, 0x06, 0xff, 0xfb, 0xf5, 0xf2, 0x06, 0xfb, 
	0xf1, 0xfa, 0x06, 0xf1, 0x09, 0xff, 0xff, 0x08, 0x04, 0xfb, 0x0e, 0x0b, 
	0xf5, 0x09, 0x03, 0x00, 0x09, 0xf0, 0xf6, 0xf6, 0x01, 0xfa, 0x10, 0xf2, 
	0xf8, 0x0f, 0xfc, 0x04, 0x0a, 0x0b, 0xf4, 0xf5, 0xf6, 0xf4, 0x06, 0x0d, 
	0x04, 0xf8, 0x0c, 0xf3, 0xfd, 0x00, 0x09, 0xf2, 0x09, 0x0c, 0x0e, 0x08, 
	0xf1, 0xf7, 0xf3, 0xf2, 0x04, 0xf8, 0x07, 0x07, 0xfd, 0xf4, 0xf2, 0xf1, 
	0xf3, 0xff, 0xf5, 0xfa, 0xfe, 0xf4, 0xfc, 0xfb, 0x0d, 0xfd, 0x01, 0x11, 
	0xf8, 0x0e, 0xf1, 0xf2, 0xf4, 0xfa, 0x09, 0x01, 0x00, 0x02, 0xf3, 0x07, 
	0x03, 0x04, 0x03, 0xf8, 0x0e, 0x09, 0xec, 0x01, 0xee, 0xfd, 0xee, 0x09, 
	0x06, 0x0a, 0xfb, 0xfa, 0xf8, 0x08, 0xf9, 0xfc, 0xf3, 0xff, 0x06, 0x06, 
	0xfd, 0xf9, 0xf7, 0x05, 0xf6, 0x0f, 0xf0, 0x0d, 0x0a, 0x07, 0xf2, 0xf5, 
	0xef, 0xef, 0x01, 0x06, 0x05, 0x07, 0xfe, 0xfa, 0xff, 0x02, 0x03, 0x01, 
	0xf9, 0x00, 0x0a, 0xff, 0xf6, 0xf5, 0x0c, 0x0b, 0x0b, 0xf5, 0xee, 0x0a, 
	0xfb, 0xff, 0xf8, 0xff, 0xf9, 0xf3, 0x10, 0x07, 0xf5, 0xf7, 0xfd, 0xfe, 
	0x0c, 0x0a, 0xfd, 0xf3, 0xf2, 0xf0, 0x03, 0x01, 0xf9, 0x05, 0x0e, 0x0c, 
	0x01, 0xf5, 0xf4, 0x03, 0x06, 0xf4, 0x07, 0xfa, 0xfd, 0xf8, 0x00, 0xf7, 
	0xf3, 0xfb, 0x09, 0xf0, 0xfc, 0x01, 0xf0, 0x0f, 0x06, 0x0e, 0x03, 0x06, 
	0x00, 0x00, 0x0d, 0x03, 0x06, 0x01, 0xfd, 0x09, 0xf4, 0x03, 0xf0, 0x10, 
	0x0e, 0xf1, 0xfe, 0x09, 0x03, 0xf3, 0xee, 0xf8, 0xf3, 0xfc, 0xf5, 0xf0, 
	0x09, 0x00, 0xf8, 0xf5, 0xf3, 0x0d, 0xed, 0xfa, 0xf3, 0xf5, 0xf8, 0x06, 
	0xf7, 0xf0, 0xf3, 0x07, 0xf5, 0xf7, 0xfd, 0x03, 0xf5, 0x00, 0xf6, 0x08, 
	0xf8, 0xfd, 0xef, 0xfe, 0xfa, 0xf6, 0xf4, 0xfa, 0x01, 0xff, 0x09, 0x09, 
	0xff, 0xef, 0xff, 0x09, 0xf7, 0x04, 0x04, 0xfb, 0x0b, 0x07, 0x0a, 0xfc, 
	0xf7, 0xfd, 0x06, 0x09, 0xf0, 0xfd, 0xf4, 0xf7, 0x00, 0xef, 0xef, 0xf2, 
	0xf8, 0xf2, 0xff, 0x0f, 0x0e, 0x01, 0x08, 0xf3, 0x01, 0x06, 0x06, 0x06, 
	0x00, 0xfe, 0xf5, 0x03, 0x0e, 0xf6, 0xfb, 0x04, 0xfb, 0x0e, 0xf6, 0xfe, 
	0x09, 0xf4, 0xff, 0xfa, 0x0c, 0xf8, 0x06, 0xf7, 0xf5, 0x0f, 0x08, 0x01, 
	0xee, 0x0e, 0x06, 0x0f, 0xfb, 0xf3, 0xfc, 0xfb, 0x0e, 0x09, 0xed, 0x0a, 
	0xf1, 0x0d, 0x06, 0xf3, 0xf8, 0x07, 0xfc, 0x0e, 0x0a, 0xec, 0xff, 0xfd, 
	0xf7, 0x04, 0xfd, 0xf9, 0x0c, 0x0d, 0xf9, 0xf3, 0x08, 0x10, 0xfb, 0xf8, 
	0x0a, 0xfc, 0x04, 0x0e, 0xf7, 0xf5, 0x0d, 0x0e, 0xf3, 0xef, 0xf9, 0xf3, 
	0x02, 0x0d, 0xf8, 0x05, 0xf2, 0x0c, 0xf9, 0xf6, 0xef, 0x02, 0xf5, 0x06, 
	0x0e, 0x0a, 0xfc, 0xfc, 0xee, 0xf9, 0x0a, 0xf9, 0xfa, 0x07, 0x05, 0x02, 
	0xfc, 0xfe, 0x0d, 0xf1, 0x09, 0xf8, 0xfb, 0xf5, 0xfa, 0x07, 0xfa, 0x07, 
	0xef, 0xfe, 0x08, 0xf8, 0x07, 0x00, 0x05, 0x02, 0xfd, 0xf7, 0x07, 0xf7, 
	0xf3, 0xfa, 0xf0, 0x08, 0x07, 0x0c, 0x0a, 0x09, 0xf5, 0xfe, 0x03, 0xef, 
	0x0d, 0x08, 0x02, 0x02, 0x0b, 0x05, 0x02, 0x04, 0x02, 0xf1, 0x0c, 0xf9, 
	0x09, 0xf0, 0xf4, 0x02, 0x09, 0x0f, 0xf2, 0x09, 0xef, 0xfc, 0x00, 0x07, 
	0xf5, 0xef, 0x0b, 0x0f, 0x09, 0xfa, 0x05, 0xf7, 0xf3, 0x0f, 0xf1, 0x0e, 
	0xfd, 0xfa, 0x08, 0xfa, 0x0b, 0xec, 0x06, 0x07, 0xfa, 0x07, 0x06, 0x0f, 
	0x02, 0xfe, 0x06, 0xf8, 0xf7, 0x11, 0xf7, 0xf4, 0xff, 0x05, 0xff, 0x0a, 
	0xf3, 0xf7, 0x07, 0xf9, 0xf4, 0x0e, 0x06, 0x0c, 0xf6, 0x0a, 0x03, 0xf1, 
	0x04, 0xf5, 0x08, 0x0c, 0xfe, 0xf8, 0xf0, 0xf2, 0xf7, 0xf9, 0x05, 0x10, 
	0xf1, 0x05, 0xf7, 0xfe, 0xef, 0xf8, 0xf0, 0x0e, 0xee, 0xf6, 0xf7, 0xf4, 
	0x0d, 0x00, 0x0e, 0xff, 0xfc, 0xf6, 0xfd, 0x05, 0x0b, 0xf6, 0x08, 0xfd, 
	0xf6, 0x07, 0xf4, 0xf3, 0x0b, 0x0b, 0x11, 0x01, 0xee, 0xf2, 0xf9, 0x0d, 
	0xf1, 0xf5, 0xf6, 0xf9, 0xf0, 0x07, 0x0b, 0xf2, 0x0d, 0x00, 0xf3, 0xf3, 
	0x05, 0x00, 0xf2, 0x0b, 0xfe, 0xfb, 0x00, 0xfe, 0xfe, 0x06, 0x01, 0xf9, 
	0xfb, 0xf4, 0x0f, 0x02, 0xf9, 0x11, 0xfe, 0x0a, 0xf1, 0xf2, 0x05, 0xef, 
	0x03, 0x11, 0x06, 0x09, 0xf1, 0x09, 0xff, 0xfd, 0xf5, 0xf5, 0xff, 0xfa, 
	0x0d, 0xee, 0xee, 0x00, 0x0d, 0xf1, 0xef, 0x06, 0xf0, 0x0f, 0x05, 0xef, 
	0xff, 0x09, 0x0d, 0x0c, 0xfc, 0xf0, 0xfa, 0xfa, 0x03, 0x0b, 0xf8, 0xf7, 
	0x0b, 0x10, 0xf6, 0x09, 0x04, 0xff, 0x0e, 0xf8, 0x09, 0x07, 0xf3, 0x01, 
	0xff, 0xf2, 0xef, 0x08, 0x09, 0xf5, 0x11, 0x03, 0xf2, 0xfe, 0x0e, 0x05, 
	0xee, 0x0a, 0xf0, 0x00, 0x03, 0x0c, 0xfc, 0xf2, 0x0b, 0xf8, 0xf4, 0x08, 
	0x07, 0xfc, 0xee, 0xf9, 0xff, 0x0d, 0xee, 0x0f, 0x03, 0xfb, 0x05, 0xfc, 
	0x0e, 0xfe, 0x07, 0xf3, 0x0d, 0x0e, 0x0c, 0x08, 0x0d, 0x09, 0xff, 0x0b, 
	0xff, 0x06, 0xfb, 0xf3, 0x03, 0x08, 0xfe, 0xf1, 0x04, 0x02, 0xfa, 0x0e, 
	0x0d, 0x06, 0x09, 0x0c, 0xf7, 0x06, 0xec, 0xf9, 0x09, 0xfe, 0x0e, 0x05, 
	0x0a, 0x0b, 0xfb, 0xf5, 0x0e, 0x08, 0xef, 0x0f, 0x02, 0x03, 0x0a, 0xf7, 
	0x03, 0x11, 0x08, 0xfe, 0x04, 0x01, 0x09, 0xfe, 0x06, 0xef, 0xf6, 0x01, 
	0xef, 0x0a, 0xf3, 0x0e, 0xf9, 0xf5, 0xfa, 0xff, 0xf2, 0x07, 0xf2, 0x08, 
	0x06, 0x05, 0xfc, 0xfb, 0xfe, 0xf8, 0x00, 0x04, 0xf0, 0xff, 0x07, 0x01, 
	0x0e, 0x05, 0xfe, 0xfc, 0xfe, 0x09, 0xf7, 0xf2, 0xf3, 0x08, 0x05, 0x10, 
	0xfe, 0x01, 0xfb, 0xff, 0x00, 0x0c, 0x08, 0x06, 0xff, 0xf1, 0x0d, 0x0b, 
	0xf0, 0xf5, 0xfc, 0xf1, 0x11, 0xfa, 0xfd, 0x05, 0xfa, 0xf5, 0x0e, 0xef, 
	0xf1, 0xfd, 0x0b, 0xff, 0xfd, 0x04, 0x0a, 0x0e, 0xf6, 0x11, 0x0d, 0x0d, 
	0xf1, 0xf5, 0x03, 0x06, 0xf4, 0x00, 0x00, 0xfd, 0x03, 0xf2, 0xf7, 0xf4, 
	0xfd, 0x06, 0x09, 0xfb, 0x09, 0xff, 0xf2, 0x0f, 0x0c, 0xfa, 0xf2, 0x04, 
	0xf8, 0xef, 0xff, 0xf2, 0x00, 0x0e, 0xf4, 0xf7, 0xfc, 0x11, 0xf4, 0x0b, 
	0xfe, 0xef, 0x02, 0x0f, 0xf0, 0x08, 0x0e, 0x0f, 0xfc, 0xfa, 0x01, 0xf7, 
	0xf4, 0x0b, 0x0d, 0x0f, 0xf6, 0xf4, 0xf3, 0xf7, 0x00, 0xfd, 0x00, 0x03, 
	0xff, 0x0d, 0xf7, 0x00, 0xf5, 0xf6, 0x0e, 0x11, 0x03, 0x06, 0x01, 0x0e, 
	0x00, 0x0f, 0xf7, 0xf2, 0x08, 0xff, 0xfe, 0xf7, 0xef, 0xfc, 0xf3, 0xfd, 
	0xfe, 0xf6, 0x0d, 0x08, 0xf8, 0xfa, 0xef, 0xf7, 0xf4, 0xf6, 0x05, 0x02, 
	0xf0, 0xf1, 0x0a, 0xef, 0xf1, 0x04, 0x0c, 0x05, 0xf9, 0xf2, 0xf8, 0xfc, 
	0x0a, 0xfc, 0x11, 0xf7, 0x0a, 0xf4, 0xf5, 0xfe, 0x03, 0xf9, 0xfe, 0x06, 
	0x07, 0xf6, 0xfa, 0xf7, 0xf0, 0x0f, 0xf7, 0xf1, 0xf7, 0xf5, 0x00, 0x0f, 
	0x06, 0xf7, 0x01, 0xf7, 0x05, 0xf6, 0x00, 0x04, 0xf5, 0xf8, 0x08, 0xf8, 
	0xf9, 0xf2, 0x05, 0xfb, 0xf5, 0xf3, 0x08, 0x0e, 0xf7, 0x08, 0x01, 0x0d, 
	0xf3, 0xf4, 0x02, 0x0a, 0xfb, 0x0d, 0xf4, 0x06, 0xf6, 0x06, 0xf9, 0x06, 
	0xf4, 0x04, 0x0b, 0xfc, 0xf2, 0xf1, 0x0a, 0x06, 0x0e, 0x0a, 0xf8, 0x06, 
	0x05, 0xfe, 0xff, 0x00, 0xff, 0x0f, 0xf2, 0xfa, 0x0c, 0x0d, 0xf3, 0x03, 
	0xf4, 0x03, 0xfc, 0x09, 0x09, 0xf2, 0xf9, 0x01, 0x03, 0xfc, 0x04, 0xef, 
	0xff, 0x04, 0xf0, 0xfa, 0xfc, 0x0d, 0x05, 0x0c, 0xf4, 0xf2, 0xee, 0xfa, 
	0x08, 0xfc, 0xf5, 0x01, 0x0e, 0x09, 0x0a, 0xf6, 0x00, 0x0d, 0x06, 0xf7, 
	0x04, 0xf6, 0xf7, 0xf0, 0xf8, 0xfb, 0xf2, 0xff, 0xfe, 0x01, 0x08, 0x11, 
	0x05, 0xf5, 0xfc, 0xf5, 0x09, 0xfb, 0x06, 0xf2, 0xee, 0xf9, 0xfb, 0xf0, 
	0xf6, 0x05, 0x01, 0xf4, 0x00, 0x07, 0x03, 0x0c, 0xff, 0x09, 0x0a, 0xfc, 
	0xfb, 0x01, 0xfa, 0xf1, 0xf2, 0x0f, 0xf6, 0x11, 0x0c, 0x07, 0xf6, 0xf0, 
	0xf4, 0x0c, 0xff, 0x04, 0x0c, 0xff, 0x0d, 0xf1, 0xfa, 0x01, 0xfc, 0x0b, 
	0xee, 0xf3, 0x0c, 0xfa, 0xee, 0xef, 0xf7, 0x03, 0x00, 0xfc, 0x0c, 0x0f, 
	0xf8, 0x03, 0x0c, 0x0c, 0x0e, 0xf5, 0xf1, 0xef, 0xf4, 0xf9, 0x0c, 0x00, 
	0x0a, 0x0b, 0x0b, 0xf6, 0x06, 0x00, 0x02, 0x0f, 0x05, 0xfd, 0x08, 0xf1, 
	0xfc, 0x08, 0xee, 0x09, 0xf6, 0x09, 0xff, 0x06, 0xf2, 0xf2, 0x06, 0xef, 
	0xf8, 0x04, 0xff, 0xf8, 0xf5, 0xfe, 0x0a, 0xf8, 0xf9, 0x06, 0xf9, 0x10, 
	0x0a, 0xfe, 0xf9, 0x10, 0x07, 0xef, 0xfd, 0x07, 0xfa, 0x08, 0x05, 0xf6, 
	0x0a, 0xf5, 0xfc, 0xff, 0xf8, 0x0c, 0xf6, 0x08, 0xee, 0xf5, 0x04, 0xf0, 
	0xf2, 0xf4, 0x01, 0xf2, 0xfc, 0x03, 0xf4, 0xfd, 0xf2, 0x09, 0x0c, 0xfa, 
	0x08, 0x0e, 0xf6, 0xf3, 0xf5, 0xf5, 0x05, 0x03, 0x08, 0x05, 0xf9, 0x0c, 
	0xf8, 0x05, 0xf9, 0x0a, 0xf0, 0x0f, 0xed, 0x07, 0x05, 0xfa, 0xf9, 0xf5, 
	0xf9, 0xfe, 0x03, 0x10, 0x0f, 0xf3, 0x08, 0xf9, 0xf9, 0x00, 0xfb, 0xf6, 
	0xf1, 0x03, 0xf4, 0xf6, 0xf0, 0xf1, 0xf8, 0xfe, 0x03, 0x04, 0x0b, 0xf4, 
	0xf6, 0xfa, 0xf2, 0x07, 0x06, 0xf3, 0x09, 0x0e, 0x0d, 0x01, 0xf8, 0xff, 
	0xfb, 0x0d, 0xf2, 0xff, 0x03, 0xfa, 0xf5, 0x07, 0xf2, 0x0c, 0x0c, 0x0e, 
	0x0d, 0x07, 0x09, 0x03, 0x0f, 0xf2, 0x0d, 0x0f, 0xfb, 0x0c, 0xf0, 0xfe, 
	0xf0, 0x02, 0xfa, 0x03, 0xfa, 0x04, 0xfe, 0x06, 0xf9, 0x02, 0x0f, 0xef, 
	0xfc, 0xf8, 0x0a, 0x09, 0x05, 0xff, 0x0b, 0xfe, 0x00, 0xf3, 0xfc, 0xf7, 
	0x0a, 0x0b, 0x0d, 0x08, 0x0d, 0x05, 0xfb, 0x0c, 0xf7, 0xff, 0xfb, 0xf3, 
	0xf0, 0xef, 0xf9, 0xfb, 0xfb, 0xfa, 0x0f, 0x08, 0xff, 0xef, 0x0e, 0x0b, 
	0xf4, 0x06, 0xf5, 0x0d, 0x07, 0x05, 0xf9, 0x0c, 0xf2, 0x0d, 0xf3, 0x03, 
	0xef, 0x09, 0xfa, 0xf4, 0x0d, 0xee, 0x00, 0x0d, 0xf4, 0xf9, 0x06, 0xfb, 
	0x0b, 0xf4, 0xef, 0x01, 0xf9, 0xf1, 0x0a, 0xf6, 0xfe, 0xef, 0x03, 0x10, 
	0x04, 0x0a, 0xfe, 0xff, 0xf7, 0xf3, 0xf5, 0xfb, 0x00, 0xf7, 0xf0, 0xfe, 
	0x08, 0x0c, 0xfc, 0x0a, 0x09, 0x07, 0x06, 0xfd, 0xff, 0xfd, 0x0b, 0x0c, 
	0x0c, 0x0d, 0xf9, 0xf6, 0xfa, 0xfc, 0xf2, 0xf3, 0xf1, 0x01, 0xed, 0xef, 
	0xf9, 0xf2, 0xf7, 0x0c, 0xf8, 0xfe, 0x02, 0xf8, 0x0c, 0x0d, 0x0e, 0x10, 
	0x0c, 0xf7, 0x05, 0x09, 0x09, 0x0c, 0xf6, 0x0e, 0xf1, 0xf1, 0xf3, 0x0a, 
	0xf8, 0xee, 0xf6, 0xfd, 0x04, 0x0d, 0xf1, 0x0d, 0x11, 0x0e, 0x01, 0xfd, 
	0x09, 0x0a, 0x03, 0xf7, 0xf6, 0x0a, 0x08, 0xfa, 0x0d, 0x0f, 0xf8, 0x00, 
	0xf3, 0x0c, 0xfb, 0x11, 0xef, 0xf8, 0xfa, 0x05, 0x0b, 0x01, 0xef, 0xf1, 
	0xee, 0x0b, 0xff, 0x0e, 0x01, 0xf6, 0xf2, 0x0e, 0xf0, 0xf6, 0x09, 0xf9, 
	0xfc, 0x0b, 0xfb, 0xfc, 0xf2, 0xf0, 0xf6, 0xf9, 0xf3, 0x02, 0x08, 0x02, 
	0x08, 0x0b, 0xf9, 0xf9, 0x0d, 0x0d, 0x03, 0x0b, 0xfc, 0xf3, 0xff, 0x0d, 
	0x08, 0x0d, 0x11, 0xff, 0x07, 0xfc, 0x02, 0xf9, 0xfe, 0x00, 0x00, 0xf9, 
	0xf6, 0x03, 0x07, 0x09, 0xfa, 0x0d, 0xf1, 0x01, 0x04, 0xfc, 0xf3, 0xf1, 
	0x08, 0xef, 0x09, 0x07, 0x01, 0xfd, 0xf4, 0x11, 0x0b, 0xf3, 0xf9, 0x03, 
	0xf4, 0xfa, 0xf0, 0x10, 0x09, 0xf4, 0x0b, 0x09, 0xff, 0x08, 0xf0, 0xf6, 
	0x08, 0xfc, 0xf4, 0x0f, 0x0e, 0xf9, 0xf8, 0x09, 0xf4, 0x0b, 0xed, 0xf3, 
	0xf4, 0xfb, 0xfe, 0xf6, 0x0a, 0x10, 0x03, 0xef, 0xfd, 0xfe, 0xed, 0x05, 
	0xfe, 0x0c, 0xf0, 0x05, 0x0b, 0xff, 0xf1, 0xf8, 0xf0, 0x05, 0xf7, 0x0e, 
	0xf6, 0xef, 0xf2, 0xf5, 0x02, 0xef, 0xff, 0x05, 0xee, 0xff, 0xf9, 0xfe, 
	0xf2, 0x09, 0xff, 0x0c, 0x03, 0xf6, 0x06, 0x0d, 0xfd, 0x01, 0xed, 0x0d, 
	0x0a, 0xf3, 0xfd, 0x05, 0x08, 0x0f, 0x0a, 0xf1, 0xfb, 0xfd, 0x0b, 0xf4, 
	0xf8, 0xf2, 0xf7, 0x05, 0xf8, 0x02, 0x09, 0x0a, 0x03, 0x09, 0x0b, 0xf7, 
	0x02, 0x06, 0x0c, 0xfe, 0x0d, 0x02, 0xf7, 0xf6, 0x04, 0x0f, 0x0c, 0x10, 
	0xfa, 0x04, 0xf5, 0x05, 0xf3, 0xf7, 0xee, 0xf7, 0x09, 0xf5, 0x0d, 0xf5, 
	0xfc, 0xef, 0x0c, 0x0c, 0x0f, 0x0a, 0xf6, 0xf7, 0xef, 0x01, 0x03, 0xf3, 
	0xff, 0xf8, 0xfa, 0xfa, 0x05, 0xf2, 0x01, 0x0d, 0xf6, 0xf5, 0xf5, 0x0e, 
	0xfa, 0x07, 0x00, 0xfb, 0x00, 0xf9, 0xf3, 0x0c, 0x02, 0xf1, 0x06, 0x0b, 
	0x06, 0xfe, 0x00, 0xfc, 0xfa, 0x06, 0x0d, 0xf0, 0x04, 0xee, 0x04, 0x09, 
	0x04, 0xff, 0xef, 0x01, 0x0d, 0xf9, 0xf3, 0x01, 0xfb, 0xf0, 0xf6, 0x0f, 
	0xf7, 0x01, 0xef, 0x03, 0x01, 0x00, 0xf5, 0x06, 0x0c, 0xf8, 0x06, 0x09, 
	0x07, 0x05, 0xf3, 0x07, 0x08, 0x09, 0x03, 0xfe, 0x03, 0xf3, 0xf4, 0x0a, 
	0xfa, 0x08, 0xfd, 0xf4, 0xfa, 0x11, 0xed, 0xf7, 0xfb, 0x05, 0x00, 0x0b, 
	0xf9, 0xff, 0xff, 0x0d, 0xfa, 0xfb, 0xf4, 0x0f, 0xf2, 0x08, 0x03, 0x0c, 
	0xf1, 0xfb, 0x01, 0xf5, 0xf5, 0x10, 0x00, 0xf3, 0xfc, 0x05, 0xfa, 0x0b, 
	0x08, 0x00, 0xf0, 0x01, 0xf6, 0x04, 0xee, 0xfc, 0xf6, 0xf4, 0xf3, 0x01, 
	0x01, 0xfd, 0x0a, 0x01, 0xf2, 0xf4, 0xee, 0xf8, 0x0b, 0x03, 0x0d, 0x09, 
	0xf3, 0x07, 0xff, 0xf5, 0x04, 0x0d, 0x0f, 0x10, 0x01, 0x02, 0x07, 0xf6, 
	0x09, 0x00, 0xef, 0x05, 0xf5, 0x08, 0x0e, 0xf1, 0x02, 0xfa, 0x02, 0x0e, 
	0xf0, 0x06, 0xfa, 0xf5, 0xef, 0xf1, 0x07, 0x01, 0xf3, 0xf8, 0x0e, 0x0e, 
	0x0c, 0xfc, 0x04, 0x0b, 0xed, 0xf8, 0xfc, 0xf0, 0x0b, 0xf8, 0x08, 0x04, 
	0x05, 0x09, 0x07, 0xf0, 0x06, 0x0a, 0xfd, 0x02, 0xfd, 0x07, 0xee, 0xf4, 
	0xf0, 0x0e, 0xf4, 0xfe, 0x05, 0x00, 0xf0, 0xf6, 0xf0, 0x08, 0xfa, 0xf6, 
	0x0c, 0xf5, 0xfe, 0x0b, 0xf9, 0x0b, 0xff, 0xf7, 0x03, 0x02, 0xee, 0xf5, 
	0x09, 0xfa, 0xfb, 0xfc, 0xf3, 0xf0, 0x0a, 0x0a, 0x0e, 0x07, 0xf1, 0xef, 
	0x09, 0xf2, 0xf5, 0xfd, 0x0e, 0xff, 0xf6, 0xf0, 0x0b, 0x0a, 0x0b, 0x0e, 
	0x05, 0x02, 0xf2, 0x0a, 0x08, 0x04, 0xf8, 0x02, 0xfd, 0x08, 0xf7, 0x0c, 
	0x09, 0x0c, 0x01, 0x0a, 0xf6, 0xf1, 0xf6, 0x0e, 0x01, 0xf4, 0x0d, 0xf7, 
	0xff, 0x11, 0x0c, 0x0b, 0x01, 0x06, 0xff, 0xfe, 0xf7, 0xf5, 0x0a, 0xfb, 
	0xfa, 0x0f, 0x0b, 0xfe, 0x06, 0xf0, 0xfb, 0xfb, 0xf8, 0x08, 0x04, 0xf8, 
	0x07, 0xf4, 0xfa, 0xf9, 0xf9, 0xf2, 0xfc, 0xf4, 0x05, 0x09, 0x0b, 0x06, 
	0x0a, 0x09, 0xff, 0x0f, 0xf8, 0xf4, 0x00, 0xff, 0x02, 0xfd, 0x04, 0xfb, 
	0x06, 0xf8, 0xf7, 0xfe, 0xf5, 0x03, 0x05, 0x08, 0x0e, 0x04, 0x06, 0xf0, 
	0x0a, 0xff, 0x09, 0x0b, 0xef, 0xfe, 0x0d, 0xf1, 0x06, 0xfd, 0x04, 0xf5, 
	0xfc, 0xfe, 0x02, 0x11, 0x0d, 0xfc, 0xfd, 0x00, 0xf5, 0x01, 0x0e, 0xfb, 
	0xef, 0xf5, 0xee, 0xf5, 0xf9, 0xf5, 0x0a, 0x0e, 0xf8, 0xf6, 0x0c, 0x0f, 
	0x00, 0x0a, 0x09, 0x0d, 0x0a, 0x10, 0xf3, 0xf3, 0xfb, 0x01, 0xfb, 0xfc, 
	0x0c, 0x0d, 0xfc, 0xef, 0x0e, 0xf2, 0xfe, 0xf1, 0xfb, 0xfb, 0x09, 0x0b, 
	0x0d, 0xee, 0x0c, 0xf9, 0xf1, 0x0e, 0xf6, 0x10, 0x0c, 0xf3, 0xf1, 0x05, 
	0xee, 0x09, 0x07, 0xf4, 0xf9, 0xf4, 0x04, 0x10, 0x03, 0x0c, 0x09, 0xf2, 
	0xef, 0x09, 0xf8, 0xfd, 0x0d, 0x01, 0x02, 0x0a, 0xf6, 0xf3, 0x02, 0xfc, 
	0xfe, 0x0f, 0xfe, 0xf6, 0xf9, 0xf2, 0x0c, 0xff, 0xfb, 0xfd, 0x09, 0xf2, 
	0x09, 0x06, 0xed, 0xf5, 0xf0, 0x07, 0x02, 0x11, 0xfb, 0x11, 0xf6, 0xfc, 
	0x05, 0x05, 0x03, 0x0e, 0x0e, 0xfd, 0xf5, 0xf9, 0x01, 0xf4, 0xec, 0xf1, 
	0x0a, 0xf4, 0xfd, 0x0d, 0x0b, 0xff, 0xf4, 0x00, 0xf3, 0xfb, 0xf0, 0xf2, 
	0xf4, 0x07, 0xf3, 0xf5, 0xf0, 0x0b, 0x0f, 0xfd, 0xf5, 0x0d, 0x01, 0x04, 
	0xfc, 0xee, 0xed, 0xf0, 0xf8, 0x05, 0xf4, 0xfa, 0x0d, 0x0c, 0x09, 0xf7, 
	0xf6, 0xff, 0xfa, 0xfc, 0xfa, 0xfb, 0x04, 0xfb, 0x01, 0x07, 0x08, 0xfc, 
	0xfb, 0x0a, 0x0b, 0x0f, 0xf6, 0x0a, 0xfd, 0xfd, 0x02, 0xf7, 0x0c, 0xfe, 
	0xf4, 0xf6, 0xf0, 0x0a, 0xf6, 0xff, 0xf6, 0xff, 0xee, 0xf3, 0x06, 0x0b, 
	0x00, 0xf2, 0x0c, 0xf4, 0xf7, 0xf7, 0xff, 0x0b, 0xf4, 0x01, 0xff, 0x02, 
	0xf3, 0x0c, 0x0c, 0xf4, 0x09, 0xf2, 0x0c, 0xf7, 0x0a, 0x0d, 0xf8, 0x11, 
	0xfa, 0x04, 0xf3, 0xff, 0xfd, 0xf1, 0x05, 0x0d, 0x00, 0x0d, 0x09, 0x08, 
	0xf9, 0xfb, 0xee, 0x00, 0x0f, 0xf6, 0xff, 0xfb, 0xfe, 0xef, 0x08, 0xf0, 
	0xf4, 0x00, 0xf1, 0xf7, 0xf3, 0x09, 0xfc, 0x02, 0xf7, 0x08, 0xfb, 0x08, 
	0xf2, 0x0e, 0xf7, 0x02, 0xf8, 0xee, 0x0b, 0xf8, 0xfb, 0xff, 0xf6, 0xf2, 
	0x11, 0x0a, 0xf6, 0xfa, 0x08, 0x0c, 0x00, 0x02, 0xf8, 0x0b, 0xf6, 0x0a, 
	0xed, 0xfd, 0x09, 0xfe, 0x01, 0xf7, 0xf0, 0x02, 0xf8, 0x0b, 0xfa, 0x07, 
	0x0b, 0xf9, 0xf0, 0xfc, 0xf8, 0xf0, 0x05, 0x0c, 0xef, 0x01, 0xf7, 0xfd, 
	0xf5, 0x06, 0x05, 0xf4, 0x0e, 0x00, 0x0e, 0x0e, 0x00, 0xfa, 0x05, 0xfb, 
	0xfc, 0x0c, 0x01, 0xfd, 0xff, 0x0e, 0x0e, 0xfa, 0xf1, 0xfe, 0x0b, 0x09, 
	0x0a, 0xf5, 0x05, 0xf3, 0x0d, 0x02, 0xfb, 0xf9, 0x03, 0x0b, 0x09, 0x0c, 
	0xf6, 0xfb, 0x06, 0xf4, 0xed, 0xf2, 0x09, 0x10, 0x10, 0x08, 0xef, 0xf4, 
	0x08, 0x0d, 0xf4, 0xfd, 0xfc, 0xfc, 0x09, 0x07, 0xf7, 0x00, 0x05, 0xf1, 
	0x0e, 0xfd, 0x0f, 0x10, 0xfd, 0x11, 0x0a, 0x06, 0xf1, 0x07, 0x02, 0xf2, 
	0xf6, 0xfd, 0x01, 0x0e, 0x08, 0x0f, 0xf0, 0xf9, 0xfc, 0x0c, 0x06, 0xff, 
	0xf1, 0x00, 0x07, 0x0c, 0xfb, 0x08, 0x09, 0xfd, 0xf9, 0xf5, 0x02, 0xfb, 
	0xef, 0xf1, 0xf3, 0xf4, 0x06, 0xff, 0xef, 0x01, 0x0c, 0x05, 0x07, 0xef, 
	0x09, 0x0b, 0xfa, 0x09, 0x09, 0xf6, 0xf5, 0xfa, 0xf9, 0x06, 0xf1, 0xf9, 
	0x01, 0x02, 0x09, 0x06, 0x05, 0x07, 0x06, 0xf0, 0xfa, 0x0f, 0xfd, 0x0f, 
	0xef, 0x08, 0xfb, 0x0a, 0x05, 0x02, 0x0e, 0x0f, 0x02, 0x0f, 0x03, 0x03, 
	0x0e, 0x0e, 0x06, 0x10, 0x00, 0xfb, 0x03, 0xfa, 0xfe, 0x0f, 0xfc, 0xf0, 
	0xfe, 0x06, 0x02, 0x05, 0xfe, 0xfa, 0x0c, 0x08, 0xf3, 0xfc, 0x04, 0xf5, 
	0x0a, 0xf1, 0xff, 0xf8, 0xfb, 0x10, 0x0f, 0x04, 0x04, 0x0a, 0xed, 0x01, 
	0x06, 0xff, 0xf6, 0xff, 0xf5, 0x01, 0xfa, 0xf7, 0x05, 0x07, 0xf5, 0xf8, 
	0xfa, 0xfc, 0xf4, 0xf3, 0x0b, 0x07, 0xfe, 0x11, 0x02, 0xf2, 0xfc, 0x09, 
	0xf3, 0x0f, 0xfd, 0xfc, 0xee, 0xfb, 0x09, 0xff, 0x02, 0x07, 0xff, 0x11, 
	0x02, 0x0a, 0xfe, 0x06, 0x09, 0xf9, 0xf3, 0x08, 0x0d, 0xf7, 0x00, 0x06, 
	0xf3, 0x0e, 0x0d, 0x0c, 0xee, 0xf9, 0xfe, 0xef, 0x0e, 0x06, 0x0f, 0xef, 
	0x02, 0xf9, 0x05, 0xf2, 0x07, 0xf0, 0x07, 0xfe, 0x03, 0xfa, 0x07, 0xfb, 
	0xfd, 0x02, 0xef, 0xfd, 0xee, 0x07, 0xf1, 0xfe, 0xfc, 0x06, 0x02, 0xf5, 
	0x09, 0xf7, 0x04, 0x0c, 0x07, 0xfd, 0xf2, 0x05, 0xf0, 0x0c, 0xf3, 0xf3, 
	0xfa, 0xff, 0xf0, 0x03, 0xfa, 0xf8, 0x04, 0x0e, 0x00, 0xfd, 0x07, 0x03, 
	0x01, 0x0b, 0xed, 0x01, 0xee, 0x05, 0x0a, 0xfc, 0x09, 0xff, 0x08, 0x01, 
	0xf0, 0x09, 0x09, 0xfe, 0xef, 0x0b, 0xef, 0xf7, 0xf3, 0x07, 0x08, 0xff, 
	0xef, 0xf7, 0xef, 0x00, 0x00, 0xfe, 0x0a, 0x10, 0x08, 0xf3, 0x02, 0xfa, 
	0xed, 0x09, 0xfa, 0x09, 0xf6, 0x06, 0xfe, 0xf9, 0x02, 0xfb, 0x06, 0xf9, 
	0xf2, 0xef, 0xf9, 0x09, 0x0a, 0xf3, 0xfc, 0x07, 0xf3, 0xfa, 0x0e, 0x04, 
	0xfb, 0x10, 0x0d, 0xfb, 0xf4, 0xf8, 0x08, 0xfa, 0xf2, 0xfb, 0xf4, 0x06, 
	0xf9, 0xf6, 0x06, 0xff, 0x07, 0x03, 0x03, 0x0f, 0xfd, 0x07, 0xfa, 0xfe, 
	0xfa, 0x05, 0x0e, 0x02, 0xf8, 0x08, 0x05, 0x0a, 0x01, 0xf5, 0xf4, 0x0e, 
	0x07, 0x0b, 0xfd, 0xfc, 0x05, 0x03, 0xff, 0xf6, 0x0e, 0xfb, 0xf7, 0xf0, 
	0x09, 0x07, 0xf4, 0xf2, 0x01, 0xfd, 0x0c, 0xf3, 0xee, 0xf2, 0x03, 0xf2, 
	0xfc, 0xfe, 0x01, 0xf1, 0xff, 0x03, 0xf5, 0x10, 0x09, 0xf5, 0xfc, 0xf6, 
	0xed, 0x0d, 0xff, 0x0f, 0xf2, 0x0b, 0xf8, 0xf8, 0xf3, 0xfa, 0xfd, 0x08, 
	0x0b, 0xfc, 0xf1, 0x0e, 0x03, 0x0c, 0xef, 0x00, 0xef, 0xf0, 0x03, 0xf1, 
	0xfb, 0x06, 0xf6, 0xf5, 0xf0, 0xf5, 0xfe, 0xff, 0x0a, 0x02, 0xf9, 0x0c, 
	0xf6, 0xff, 0xfb, 0x09, 0xfd, 0x0b, 0x06, 0xf4, 0x05, 0x0f, 0xf2, 0x00, 
	0x0c, 0x07, 0x07, 0x09, 0xfa, 0x06, 0x0c, 0xfb, 0xf8, 0x03, 0xf2, 0x0c, 
	0xed, 0x03, 0xfc, 0x05, 0xf9, 0x0b, 0x03, 0xfd, 0xfd, 0xf5, 0x02, 0x06, 
	0x10, 0xfd, 0xf6, 0x07, 0xf2, 0xff, 0xf2, 0xfc, 0x0c, 0x05, 0x02, 0x02, 
	0x07, 0xfd, 0xf3, 0xf2, 0xf1, 0xfa, 0x05, 0xf1, 0xf8, 0xf5, 0x04, 0x0e, 
	0xf6, 0xf0, 0x02, 0x0b, 0x0d, 0x06, 0xee, 0x10, 0x0f, 0xf8, 0xfe, 0xf2, 
	0xfb, 0xfc, 0xfd, 0xfe, 0x02, 0x06, 0x0b, 0xf9, 0x0b, 0xfb, 0xfa, 0xf6, 
	0xfa, 0x0d, 0xef, 0x00, 0x04, 0xf3, 0x0b, 0xfa, 0xf5, 0xfc, 0x01, 0x08, 
	0xf9, 0x0e, 0x0d, 0xf8, 0xf9, 0x06, 0x04, 0xfe, 0x02, 0x07, 0x03, 0xfb, 
	0xf1, 0xef, 0xff, 0xf4, 0xff, 0xf4, 0xf8, 0xf7, 0x00, 0x10, 0xf0, 0x0c, 
	0x02, 0xfd, 0xec, 0xf1, 0xfd, 0xf6, 0xff, 0x06, 0xf5, 0xfc, 0x03, 0x00, 
	0xfc, 0x0c, 0x10, 0x06, 0xfd, 0xff, 0x0e, 0x10, 0x01, 0x0d, 0x0e, 0xf1, 
	0xfe, 0xef, 0xfe, 0x07, 0x0c, 0xf0, 0xf3, 0x02, 0x06, 0x04, 0xfe, 0xf9, 
	0xfa, 0xf0, 0x06, 0x00, 0x0c, 0xf0, 0xfe, 0x03, 0xf0, 0xf3, 0x00, 0x04, 
	0x05, 0xef, 0xf4, 0x0a, 0x09, 0xed, 0x0a, 0xfd, 0xef, 0xf1, 0x04, 0xfc, 
	0xf4, 0x0d, 0x04, 0xf3, 0xf8, 0xf2, 0x0c, 0x0f, 0xf0, 0x00, 0xec, 0xf8, 
	0x09, 0x00, 0x0d, 0xfe, 0x09, 0x07, 0x08, 0x05, 0x00, 0x11, 0xf5, 0x0b, 
	0x06, 0x02, 0xef, 0x0a, 0x07, 0xfb, 0x0e, 0x00, 0xf7, 0xfe, 0x0d, 0xfe, 
	0xf8, 0xf4, 0x00, 0x0c, 0xfa, 0x07, 0xf4, 0xf8, 0xee, 0x00, 0x06, 0x00, 
	0xf9, 0xf1, 0xf8, 0x03, 0x0b, 0x04, 0x01, 0x03, 0xef, 0xf8, 0xf5, 0xfb, 
	0xf7, 0x08, 0x04, 0xf9, 0xf2, 0xfe, 0x0a, 0x0c, 0xf9, 0xfa, 0xee, 0xfa, 
	0x08, 0x03, 0xff, 0x02, 0xed, 0x06, 0x06, 0x04, 0x00, 0xf4, 0xf8, 0x05, 
	0x04, 0xf9, 0xfc, 0xef, 0x02, 0xec, 0x08, 0xf0, 0x0a, 0xfd, 0x00, 0x09, 
	0xf7, 0xfe, 0x07, 0xfb, 0xf7, 0xf0, 0xf5, 0x0a, 0xf9, 0x04, 0x00, 0xf5, 
	0x00, 0x0c, 0xf5, 0xf8, 0x01, 0x0a, 0xff, 0xfb, 0x0a, 0xf9, 0xfc, 0x09, 
	0xed, 0x03, 0xef, 0x0b, 0xf2, 0xf9, 0xed, 0xf9, 0xf3, 0xf9, 0x08, 0xf6, 
	0xf3, 0xf3, 0x00, 0xf1, 0x0e, 0xff, 0x0c, 0xf4, 0x01, 0x08, 0x02, 0x0f, 
	0xf5, 0x0a, 0x05, 0x02, 0xef, 0x0f, 0x05, 0xf9, 0xfe, 0xf8, 0xf3, 0xfc, 
	0x0b, 0x04, 0x0d, 0x00, 0xf6, 0x04, 0x01, 0x11, 0xf2, 0x01, 0x0c, 0x0b, 
	0x02, 0xf1, 0xef, 0xf5, 0xef, 0xf8, 0x09, 0x0e, 0x00, 0xfc, 0xf6, 0xf8, 
	0xed, 0xfc, 0x0d, 0x02, 0xfc, 0xf9, 0xfd, 0x0a, 0xfe, 0xf7, 0x00, 0x09, 
	0xfd, 0x09, 0xf1, 0x01, 0x05, 0x01, 0x01, 0x0f, 0xf9, 0x08, 0xfe, 0xfb, 
	0x01, 0xfb, 0xf6, 0x0f, 0xf5, 0xfd, 0x06, 0x11, 0xf9, 0x07, 0x07, 0x0b, 
	0x04, 0xf9, 0x06, 0x0c, 0xfc, 0x09, 0xff, 0xfc, 0xf2, 0xfc, 0xf1, 0xfb, 
	0x05, 0x01, 0xef, 0xf3, 0xff, 0xf9, 0xfe, 0x06, 0xf5, 0x02, 0xfd, 0xf2, 
	0xf9, 0x0b, 0xfd, 0x04, 0xfe, 0x05, 0x08, 0x0f, 0x09, 0xf3, 0xfd, 0xf8, 
	0x02, 0x0b, 0x05, 0xf1, 0xf3, 0x11, 0xfa, 0xf2, 0x08, 0x11, 0x02, 0x07, 
	0xfb, 0x04, 0x07, 0x04, 0xf1, 0x04, 0xff, 0xfd, 0x0a, 0x11, 0xf5, 0x07, 
	0x08, 0x0c, 0x08, 0xf1, 0xf4, 0xfc, 0x0b, 0x0a, 0x0c, 0xfe, 0xed, 0xfc, 
	0x10, 0x00, 0x04, 0x0f, 0x06, 0xf5, 0x0e, 0x10, 0xf9, 0xfb, 0xf9, 0x0c, 
	0x01, 0xf7, 0xf5, 0xf6, 0xfa, 0xf8, 0x06, 0x0b, 0x09, 0xf3, 0xfc, 0xf0, 
	0xfb, 0x04, 0xee, 0xf1, 0xf8, 0xfe, 0xff, 0xfc, 0x10, 0xfb, 0x11, 0xf0, 
	0x0e, 0xf1, 0x05, 0x0d, 0xf1, 0x09, 0xf9, 0xfe, 0xef, 0x03, 0x02, 0xfa, 
	0x06, 0xf5, 0x07, 0xfa, 0x07, 0x06, 0xed, 0xfc, 0xff, 0x02, 0xf5, 0x0e, 
	0xf0, 0x0d, 0xfd, 0x01, 0x01, 0x0f, 0xf0, 0xf7, 0x09, 0x0c, 0x08, 0x06, 
	0x05, 0xed, 0x0e, 0x08, 0x0b, 0x11, 0xf9, 0xfc, 0xff, 0x0d, 0x00, 0xf4, 
	0x0a, 0x0c, 0x09, 0xfd, 0xfb, 0x0a, 0xef, 0xf1, 0xfe, 0x01, 0xf8, 0xf1, 
	0x0f, 0x08, 0xf6, 0x11, 0xef, 0x00, 0xfe, 0xf1, 0xfa, 0xfa, 0xfa, 0x04, 
	0xfd, 0xfe, 0x0e, 0x06, 0xf1, 0xff, 0x0c, 0xfc, 0x0a, 0xf5, 0xfb, 0xff, 
	0x0e, 0xf6, 0x09, 0x0f, 0x04, 0xf9, 0xfd, 0xf6, 0xf1, 0xf3, 0xf7, 0x03, 
	0xf4, 0x06, 0xf3, 0x0a, 0xf8, 0xfb, 0x0d, 0xfe, 0x0e, 0x10, 0x02, 0x04, 
	0xf3, 0x0a, 0x00, 0xf1, 0xf8, 0xf7, 0xf8, 0x03, 0x0b, 0x00, 0x01, 0x06, 
	0x06, 0x0a, 0xfe, 0xf4, 0x0e, 0x01, 0xff, 0x0a, 0xf9, 0x0a, 0xf3, 0x01, 
	0xfe, 0xf6, 0x06, 0xf9, 0xf8, 0xf8, 0xf7, 0x08, 0xf0, 0x01, 0xf7, 0x00, 
	0x07, 0x07, 0x06, 0xf5, 0x0e, 0xf7, 0x0c, 0xf7, 0xf7, 0xfe, 0xf7, 0xfd, 
	0xf3, 0xf0, 0xf2, 0xf7, 0xf9, 0xf0, 0xfc, 0xff, 0xed, 0xf5, 0xef, 0xf3, 
	0xf9, 0x11, 0x0e, 0xf1, 0x04, 0xf5, 0x02, 0xf3, 0xf4, 0x09, 0xf8, 0x0d, 
	0x03, 0x0b, 0x0d, 0xfa, 0xff, 0xf4, 0xf2, 0x00, 0xf3, 0xfc, 0x01, 0x0d, 
	0xf7, 0x0a, 0xfe, 0x01, 0xfd, 0x02, 0xf8, 0x05, 0x05, 0x0e, 0x0e, 0x10, 
	0x0c, 0x11, 0xf8, 0x07, 0xf9, 0xfc, 0xef, 0xf5, 0xfe, 0xf4, 0xfe, 0xf1, 
	0xfe, 0x0a, 0x07, 0x02, 0xf5, 0x00, 0x0e, 0x09, 0xf1, 0x04, 0xff, 0x07, 
	0x06, 0x01, 0xff, 0xf9, 0x05, 0xf9, 0xf1, 0x03, 0x08, 0xf7, 0x08, 0x0e, 
	0xfb, 0x09, 0xec, 0x0b, 0xf6, 0xf5, 0xfe, 0x0c, 0x0d, 0x02, 0xf5, 0xf9, 
	0xfa, 0x08, 0xfd, 0x01, 0xf3, 0x00, 0xfa, 0xf3, 0x0d, 0xfa, 0xfd, 0x0d, 
	0x02, 0x0e, 0x02, 0x0b, 0x0a, 0x05, 0x0b, 0xfa, 0xf9, 0x07, 0xf0, 0xf9, 
	0xf4, 0xed, 0xf5, 0x0b, 0xf7, 0xf2, 0xfc, 0x02, 0xfb, 0x0b, 0x10, 0xf3, 
	0xf5, 0x02, 0x03, 0x0b, 0xf3, 0xff, 0x0e, 0x06, 0x01, 0xf2, 0x05, 0xf4, 
	0xf7, 0xf0, 0x10, 0x05, 0xfb, 0xfe, 0xfe, 0xf4, 0x02, 0x0e, 0x03, 0xf2, 
	0xfb, 0xf7, 0x09, 0xff, 0x01, 0x0a, 0xf9, 0xf0, 0xff, 0xf3, 0x0d, 0xf7, 
	0x02, 0xfc, 0xf8, 0x0f, 0xed, 0x0e, 0x06, 0xf7, 0x06, 0x0a, 0xfe, 0xfa, 
	0xef, 0x06, 0xf4, 0xf2, 0x0d, 0xef, 0xf4, 0xfa, 0x03, 0x03, 0x02, 0xf5, 
	0xf7, 0x06, 0x01, 0xf3, 0x0b, 0x09, 0xfe, 0x09, 0x00, 0xf4, 0xf6, 0xf1, 
	0x0e, 0xf7, 0x0e, 0x0c, 0x0b, 0xfe, 0x02, 0x00, 0x02, 0xf1, 0xf6, 0x0c, 
	0xf9, 0xf4, 0x03, 0xf9, 0x09, 0x0f, 0x07, 0xfd, 0xfa, 0x04, 0xf0, 0xfe, 
	0x06, 0x06, 0xf4, 0x00, 0xfd, 0x03, 0xfd, 0xf2, 0xf8, 0xff, 0x0a, 0xf3, 
	0xf4, 0xf8, 0xf8, 0xf2, 0xf4, 0x0b, 0xf0, 0x0a, 0xf5, 0x0c, 0xed, 0xfd, 
	0x0d, 0xfc, 0xf2, 0xfb, 0xef, 0x11, 0x0d, 0x08, 0x02, 0x11, 0x01, 0x0b, 
	0xfb, 0x0a, 0xfd, 0xf8, 0x04, 0xf9, 0xf5, 0x02, 0xff, 0xfd, 0xef, 0x06, 
	0xf2, 0xf0, 0x0a, 0xef, 0x09, 0x04, 0x0a, 0xfb, 0xfa, 0xfc, 0xf8, 0xf3, 
	0xf3, 0xfd, 0x0e, 0xf2, 0xf4, 0x0e, 0xf7, 0x09, 0xf4, 0xed, 0xff, 0x0b, 
	0xfd, 0x06, 0xf5, 0xfd, 0x06, 0x11, 0x04, 0xfe, 0xf6, 0x0a, 0xed, 0xfb, 
	0xff, 0xed, 0xfa, 0xf8, 0x06, 0x0c, 0x0a, 0xf0, 0x0f, 0xfc, 0x08, 0x0f, 
	0xf9, 0x0e, 0x05, 0x08, 0xfb, 0x0e, 0xf5, 0x10, 0x0a, 0x07, 0xfc, 0x09, 
	0x11, 0xfc, 0x0d, 0xfc, 0xf0, 0x0d, 0xf2, 0x00, 0xf6, 0xf9, 0xff, 0x08, 
	0x0b, 0xf6, 0xf3, 0x06, 0x00, 0xf2, 0xf2, 0x0b, 0xf3, 0xff, 0xfb, 0xfc, 
	0x05, 0x05, 0xed, 0xf6, 0xef, 0xfb, 0x08, 0xf9, 0x0c, 0xef, 0xfd, 0x0b, 
	0x02, 0xfe, 0xfd, 0x10, 0xfa, 0x00, 0xf0, 0xfa, 0xf1, 0xff, 0x0c, 0xfd, 
	0x0b, 0xf7, 0xf9, 0x0d, 0xfc, 0xfa, 0xfd, 0xf8, 0xfa, 0xf0, 0x0c, 0x0c, 
	0xfb, 0xfe, 0xf5, 0xfe, 0xf7, 0x02, 0xf4, 0xf1, 0xf5, 0xfb, 0x00, 0x05, 
	0x0c, 0xf2, 0x00, 0xf5, 0xf1, 0xf1, 0x0d, 0x0d, 0x0b, 0x10, 0x0d, 0x03, 
	0xf7, 0x07, 0x0a, 0x11, 0xfd, 0xfd, 0x09, 0x09, 0x02, 0xf7, 0x06, 0x0a, 
	0x08, 0xfe, 0xf2, 0x02, 0xfa, 0x0d, 0xfb, 0x0f, 0xf7, 0x05, 0xfa, 0x02, 
	0xff, 0x05, 0x0d, 0xf2, 0x10, 0x0a, 0xf0, 0x02, 0xfb, 0xfc, 0xfa, 0x07, 
	0xfc, 0xf5, 0xee, 0xf8, 0xfb, 0x04, 0xfc, 0xf5, 0x0e, 0xfe, 0x11, 0xf4, 
	0x00, 0x0c, 0x01, 0x11, 0x01, 0xef, 0xf3, 0x06, 0x07, 0x03, 0xf1, 0xf2, 
	0xf9, 0x10, 0x10, 0xf3, 0xf0, 0xf4, 0x03, 0x04, 0xf6, 0x04, 0x08, 0xf4, 
	0x0c, 0x0e, 0xfa, 0x0a, 0xfe, 0xf5, 0x0d, 0xfe, 0x04, 0xfe, 0xed, 0x05, 
	0xf1, 0xfd, 0x02, 0x11, 0xf6, 0xf6, 0xf4, 0x0e, 0x03, 0xf7, 0x08, 0x0f, 
	0xec, 0xef, 0xe6, 0xf8, 0xf9, 0x01, 0x04, 0x04, 0xf8, 0x00, 0xf8, 0x08, 
	0x0e, 0x04, 0x07, 0x0e, 0x0d, 0x06, 0xfa, 0xf8, 0xfe, 0x07, 0xf4, 0x04, 
	0xf6, 0xf0, 0x05, 0xf5, 0xf7, 0xfa, 0xf9, 0xf9, 0x0c, 0x02, 0x05, 0xfa, 
	0xf8, 0x06, 0x05, 0xff, 0xf2, 0x0a, 0x05, 0x0a, 0xf0, 0x0d, 0x0d, 0xf0, 
	0xf5, 0x0a, 0xe7, 0x08, 0x04, 0xed, 0xf6, 0xf7, 0x03, 0x10, 0x04, 0x00, 
	0x08, 0xf9, 0x0c, 0xef, 0x05, 0xf0, 0x03, 0x0f, 0xff, 0xfc, 0xf2, 0xfd, 
	0xf2, 0xf6, 0xfe, 0x0d, 0x10, 0x0d, 0xef, 0xf6, 0x06, 0xff, 0xf6, 0x0b, 
	0xf0, 0xf4, 0x06, 0x05, 0x07, 0x0d, 0xf0, 0x03, 0x0a, 0xf6, 0xfe, 0x0c, 
	0x0d, 0x04, 0xf3, 0x03, 0xe9, 0x03, 0x0c, 0x0e, 0xff, 0x0a, 0xfa, 0x00, 
	0x07, 0x09, 0xf4, 0xfd, 0xf1, 0x02, 0x06, 0xfc, 0xf6, 0xf3, 0xf9, 0x0a, 
	0xeb, 0x0d, 0xe7, 0xfb, 0xff, 0x0d, 0x03, 0xf1, 0xfb, 0x09, 0x00, 0x03, 
	0xe6, 0xf0, 0xf2, 0x02, 0xf7, 0xfe, 0xee, 0xf7, 0x10, 0xf0, 0xfb, 0xf4, 
	0xf4, 0xe7, 0xea, 0xf0, 0x02, 0x05, 0xfe, 0x0f, 0xf0, 0x06, 0xf1, 0x0e, 
	0xf5, 0x0d, 0x0e, 0xf6, 0x03, 0xfe, 0xf5, 0x03, 0x03, 0x11, 0x0e, 0xfe, 
	0xfc, 0x0a, 0xee, 0xf7, 0xef, 0x02, 0x0c, 0x07, 0x04, 0xf2, 0xf7, 0x0d, 
	0xf6, 0x03, 0xf6, 0x02, 0xf7, 0x05, 0x01, 0x03, 0x10, 0xef, 0xf3, 0xfa, 
	0xfe, 0xfd, 0x02, 0x11, 0xf3, 0xf3, 0xf4, 0x07, 0xf0, 0xf6, 0xf3, 0x10, 
	0x0d, 0xfe, 0xef, 0x02, 0x00, 0xf9, 0xe6, 0x05, 0xec, 0x01, 0xe7, 0xf6, 
	0xe9, 0xf5, 0x06, 0x02, 0xfa, 0x0f, 0x08, 0x0a, 0xea, 0x00, 0xfb, 0x0f, 
	0x0b, 0xf0, 0xf7, 0xfb, 0xe9, 0x01, 0xfa, 0xf0, 0xf2, 0x0f, 0xfb, 0x0b, 
	0xfb, 0xe9, 0x01, 0x0a, 0xeb, 0xf5, 0xfb, 0x0b, 0xe5, 0xfd, 0xf3, 0x0c, 
	0xf8, 0x11, 0x0d, 0xf5, 0xec, 0xfe, 0xf8, 0x05, 0xf8, 0xfc, 0x0c, 0x0b, 
	0xea, 0x0f, 0x04, 0x01, 0xf2, 0x0c, 0x00, 0x00, 0xea, 0xf0, 0xf8, 0xf6, 
	0xf5, 0xf7, 0xe8, 0xff, 0xea, 0x03, 0x04, 0x06, 0x0a, 0xfa, 0x0a, 0x0c, 
	0xe6, 0xfd, 0xf0, 0x00, 0x09, 0x02, 0xf5, 0x0b, 0xe5, 0xfc, 0xfd, 0xf6, 
	0xf2, 0xfd, 0xf3, 0xef, 0xf4, 0xe8, 0xf2, 0x0a, 0xf7, 0xf4, 0xef, 0xfd, 
	0xff, 0xf4, 0xfa, 0x0d, 0x01, 0xf0, 0x11, 0xf0, 0x0b, 0xee, 0xf6, 0xf7, 
	0xf7, 0xfe, 0xf2, 0x00, 0x00, 0xfe, 0xf9, 0xf1, 0x02, 0x09, 0x02, 0xfc, 
	0x0c, 0xf5, 0xf0, 0xf2, 0xe8, 0xfe, 0xf6, 0xf4, 0x00, 0xfd, 0xee, 0xf2, 
	0x10, 0x0f, 0x05, 0x07, 0xfc, 0xef, 0xef, 0xf9, 0x08, 0xef, 0x07, 0xf5, 
	0x00, 0xf3, 0xe8, 0xf5, 0x07, 0xff, 0x09, 0x07, 0xfe, 0xe9, 0xf6, 0x0f, 
	0x04, 0xf6, 0xf1, 0x0a, 0xf1, 0x05, 0xf1, 0xfe, 0x11, 0x07, 0xf1, 0x0b, 
	0x03, 0x04, 0xf3, 0x09, 0xe7, 0xfb, 0xf1, 0xfd, 0xf3, 0x01, 0x06, 0x05, 
	0x0f, 0x0b, 0xf3, 0x0c, 0xee, 0xf0, 0xef, 0xfe, 0xf1, 0xf0, 0xed, 0x05, 
	0xf0, 0x0a, 0x01, 0x0b, 0x0c, 0x00, 0x07, 0x03, 0xe6, 0xfd, 0xfc, 0x10, 
	0x03, 0x03, 0xf3, 0x0e, 0xfe, 0x00, 0xf3, 0xfe, 0x04, 0xf9, 0xfc, 0x05, 
	0xfd, 0x05, 0xf8, 0xf7, 0xf8, 0xf5, 0xed, 0xfb, 0xef, 0x0b, 0x01, 0xf8, 
	0x0f, 0x0b, 0x08, 0xf8, 0x09, 0xea, 0xfe, 0x03, 0xe8, 0xf3, 0xea, 0x09, 
	0x05, 0x00, 0xf7, 0x0f, 0xf9, 0x08, 0xf7, 0x0b, 0xf7, 0xec, 0xee, 0x05, 
	0x03, 0xf8, 0xe9, 0xf2, 0x05, 0xf6, 0xf9, 0x08, 0xf6, 0xfc, 0xf2, 0x08, 
	0x03, 0xea, 0xe7, 0x06, 0xfe, 0x02, 0xfe, 0xf4, 0xea, 0xf9, 0xea, 0xfe, 
	0xf5, 0xff, 0xf5, 0x0d, 0xf4, 0xeb, 0xea, 0x06, 0xfb, 0xfd, 0xeb, 0xfb, 
	0xfb, 0x04, 0xf2, 0xfc, 0x0e, 0xf5, 0xf6, 0x02, 0xf9, 0x04, 0xfc, 0x04, 
	0xfe, 0xf8, 0xfb, 0x0c, 0x02, 0x0c, 0x05, 0xff, 0xfc, 0x04, 0xfe, 0xf8, 
	0x04, 0xf0, 0xe6, 0x0a, 0xff, 0xf9, 0xe7, 0xf6, 0xf2, 0x04, 0x02, 0xfd, 
	0xf4, 0xf6, 0xfe, 0x02, 0xfc, 0xf2, 0xf0, 0xfa, 0xeb, 0xef, 0x03, 0x10, 
	0xeb, 0xfb, 0xfb, 0x0c, 0xfe, 0x04, 0xf4, 0xfd, 0xe8, 0xfd, 0xe6, 0xf5, 
	0x04, 0xf0, 0x07, 0x0c, 0xef, 0x01, 0xf8, 0x01, 0xf2, 0x0e, 0xf4, 0x00, 
	0xff, 0xef, 0xfb, 0x0e, 0x07, 0x02, 0x0e, 0x04, 0xfb, 0xfe, 0xef, 0x0d, 
	0xfa, 0xf3, 0xf3, 0xf3, 0xe5, 0xeb, 0xea, 0xfc, 0x05, 0xf1, 0x01, 0x02, 
	0xfa, 0xf1, 0xe7, 0x0c, 0xfb, 0xf3, 0xfb, 0xfc, 0xfb, 0xf3, 0x04, 0x07, 
	0xee, 0x04, 0xec, 0x0d, 0xf4, 0xf5, 0xe9, 0xf0, 0x0c, 0xf9, 0x05, 0x04, 
	0xfe, 0xfd, 0xf1, 0x0f, 0x05, 0x07, 0xf8, 0xef, 0xec, 0xff, 0xf7, 0xf8, 
	0xff, 0xfe, 0x0a, 0xf3, 0xf1, 0xe5, 0xe8, 0x0f, 0x01, 0xef, 0xf5, 0xf9, 
	0xf6, 0x08, 0xf3, 0xf3, 0xf4, 0xff, 0x0e, 0xf3, 0x09, 0xfc, 0xf9, 0x0f, 
	0xfc, 0x0a, 0x0c, 0x0f, 0xf3, 0xf5, 0xe8, 0x00, 0x0c, 0x06, 0xf2, 0xfc, 
	0x08, 0xf1, 0xf7, 0x0d, 0xfb, 0x00, 0xeb, 0xf0, 0xe8, 0xf7, 0x04, 0x07, 
	0xf1, 0xf4, 0x08, 0xff, 0x03, 0xfc, 0xff, 0xfa, 0x04, 0xec, 0xf0, 0x0b, 
	0xfc, 0xff, 0xf5, 0x02, 0x09, 0xfd, 0xf7, 0x07, 0x07, 0xed, 0xf6, 0x10, 
	0x00, 0xf8, 0xe6, 0xff, 0xec, 0xfb, 0xed, 0xef, 0xf1, 0xf8, 0x0e, 0xfd, 
	0xfe, 0xe9, 0xfd, 0xf9, 0x06, 0x06, 0xfd, 0xfb, 0xfa, 0xf9, 0xe5, 0xfa, 
	0xf7, 0x06, 0xf1, 0xfc, 0xf7, 0xe7, 0xf8, 0x00, 0x04, 0xed, 0xf5, 0x0c, 
	0xf1, 0x0e, 0xea, 0xfe, 0x0a, 0x08, 0xf5, 0x0f, 0xfc, 0xfc, 0xf8, 0xfb, 
	0x00, 0xec, 0xec, 0x0a, 0xfe, 0xf1, 0xfb, 0x02, 0xfb, 0x00, 0xfe, 0xf9, 
	0xf0, 0xfb, 0xee, 0x0a, 0xf9, 0xea, 0x04, 0x0f, 0xe8, 0xef, 0xff, 0x00, 
	0xf0, 0xf8, 0xef, 0x09, 0xf6, 0x07, 0xfa, 0xf5, 0x00, 0xed, 0x00, 0x0d, 
	0xfb, 0xfe, 0xf9, 0x0d, 0xfd, 0x04, 0x0d, 0xf7, 0x05, 0xfe, 0xfc, 0x0a, 
	0xf3, 0xf5, 0x08, 0xf4, 0xee, 0xf8, 0xfa, 0x0c, 0xf6, 0x02, 0xef, 0x06, 
	0x10, 0xfa, 0xf8, 0xf9, 0x06, 0xeb, 0xfe, 0x07, 0xff, 0x0a, 0x00, 0xf4, 
	0x01, 0xf6, 0xf9, 0x01, 0xf6, 0xed, 0xfc, 0xfd, 0x06, 0xf6, 0xec, 0xef, 
	0x03, 0xf0, 0x02, 0x0f, 0x00, 0xf7, 0xfb, 0x02, 0xff, 0xfb, 0xef, 0x07, 
	0xec, 0xf4, 0xf3, 0xfe, 0xf0, 0x0c, 0xee, 0x03, 0x06, 0x0c, 0xf8, 0xf1, 
	0xe8, 0xec, 0xf5, 0xf0, 0xf8, 0x06, 0x10, 0xfc, 0xf7, 0xf1, 0xfe, 0x11, 
	0xf0, 0xfb, 0x01, 0xf7, 0xe9, 0xfe, 0xfe, 0x0d, 0x07, 0xee, 0x07, 0x03, 
	0xee, 0x06, 0x07, 0x03, 0x08, 0xfb, 0x08, 0xf1, 0xee, 0xf4, 0xf2, 0xf9, 
	0xf9, 0xf9, 0xef, 0xf8, 0xf9, 0xf8, 0xea, 0x0c, 0x03, 0xfb, 0x07, 0x0d, 
	0x07, 0xe5, 0xff, 0xf8, 0xf3, 0x00, 0xed, 0xfe, 0xe5, 0x0a, 0xf1, 0x10, 
	0x0e, 0x0a, 0xf9, 0xfd, 0xfb, 0xf6, 0x03, 0x0f, 0xfe, 0xe5, 0x07, 0x0d, 
	0xea, 0x0e, 0xf8, 0xfd, 0xf9, 0x0e, 0x05, 0x01, 0xf8, 0xfc, 0xee, 0xef, 
	0xf5, 0xef, 0xf4, 0xf7, 0xf2, 0xfa, 0x06, 0xf7, 0x07, 0xf7, 0x00, 0x0f, 
	0xf5, 0xe6, 0xfc, 0xfe, 0xec, 0xec, 0xf2, 0x10, 0xf0, 0xf3, 0xf9, 0xfb, 
	0xf3, 0x00, 0x0b, 0xf9, 0xe8, 0xf0, 0x01, 0xf9, 0xf0, 0xf5, 0xf0, 0x11, 
	0x02, 0x0d, 0xef, 0xf7, 0x01, 0xfc, 0xf6, 0xf6, 0x04, 0xf1, 0xe9, 0xf1, 
	0xf5, 0xfe, 0xfe, 0x01, 0xef, 0xfa, 0xfe, 0xf6, 0x08, 0x00, 0xfe, 0x05, 
	0xee, 0x03, 0x05, 0xfe, 0x01, 0xff, 0x05, 0x08, 0xfb, 0xff, 0x03, 0xf9, 
	0x09, 0xfd, 0xf8, 0x0f, 0xed, 0xfe, 0x02, 0x09, 0x03, 0xfc, 0xe6, 0xfa, 
	0xf8, 0xff, 0xea, 0x07, 0x08, 0x0b, 0xfc, 0xf6, 0xff, 0xea, 0xed, 0x02, 
	0xe5, 0xf5, 0x01, 0x00, 0xf8, 0x0a, 0xe8, 0x02, 0x00, 0x02, 0xf2, 0x05, 
	0xe7, 0x03, 0xf5, 0xf9, 0xf6, 0x02, 0xfc, 0xef, 0xf5, 0x02, 0x04, 0x03, 
	0xf2, 0x10, 0xfa, 0x01, 0xea, 0x05, 0xee, 0x0d, 0xef, 0xe7, 0xef, 0x0a, 
	0xf7, 0x0d, 0x04, 0x0d, 0x10, 0x02, 0xfc, 0xfd, 0xf5, 0x02, 0xec, 0x06, 
	0xef, 0xf3, 0xfd, 0xfe, 0x07, 0x05, 0xf7, 0x08, 0x0b, 0xf2, 0xf1, 0x0f, 
	0xef, 0xe8, 0xf8, 0x0f, 0x06, 0x00, 0xf3, 0x0d, 0xef, 0x10, 0xf7, 0xfe, 
	0x10, 0x0e, 0x02, 0xff, 0x0d, 0xfa, 0xf0, 0x10, 0xfd, 0xef, 0xfd, 0x07, 
	0xf3, 0x01, 0xf7, 0x05, 0xf6, 0xfe, 0xf2, 0x09, 0xf4, 0xee, 0xf2, 0xfd, 
	0xe6, 0x04, 0xeb, 0xfa, 0x01, 0xfc, 0x07, 0xf7, 0x0d, 0x09, 0xf4, 0x09, 
	0x02, 0xf7, 0xf4, 0xf2, 0xf8, 0xf3, 0xee, 0xf1, 0xe8, 0xfb, 0xff, 0xf1, 
	0xf2, 0x0c, 0xfb, 0xf8, 0xfb, 0x03, 0x03, 0x0b, 0x0e, 0xf3, 0xed, 0xf3, 
	0xfd, 0x10, 0xfb, 0xf7, 0xf5, 0xfc, 0xf2, 0x02, 0xef, 0xe7, 0xe6, 0xf6, 
	0xeb, 0xec, 0xf7, 0xfa, 0x04, 0xf0, 0x01, 0x07, 0xfe, 0xfd, 0x0c, 0x0f, 
	0xfe, 0xf2, 0xf6, 0x01, 0xf2, 0xef, 0xef, 0xef, 0xfc, 0xf5, 0xf3, 0xf9, 
	0x06, 0x06, 0xf9, 0x06, 0x01, 0xf7, 0xf4, 0xfd, 0x0d, 0xe7, 0xed, 0x08, 
	0x06, 0x0b, 0xfe, 0x01, 0x0f, 0xf3, 0xf5, 0x08, 0xfb, 0xec, 0x03, 0xf8, 
	0xf8, 0xfa, 0xfb, 0xfe, 0xe8, 0xf7, 0x07, 0xf4, 0x0d, 0x0a, 0x0e, 0xf3, 
	0x00, 0xec, 0xf3, 0x04, 0xee, 0xe7, 0x05, 0x0f, 0xf3, 0x10, 0x02, 0x07, 
	0x01, 0xf8, 0x06, 0xf1, 0xe7, 0xea, 0x04, 0x05, 0x02, 0x03, 0xfe, 0xf5, 
	0xe6, 0x05, 0xff, 0xf6, 0xfa, 0xf7, 0xff, 0x09, 0xe8, 0xf7, 0xf3, 0xf3, 
	0xfc, 0x03, 0xf5, 0x0a, 0xed, 0x0d, 0xf1, 0xf3, 0x07, 0x0d, 0x0c, 0xf3, 
	0xe9, 0xea, 0xf1, 0x05, 0xfe, 0xfd, 0xf1, 0xf7, 0xfb, 0x02, 0xf9, 0xfe, 
	0x0c, 0x06, 0x07, 0xf3, 0x03, 0x02, 0xec, 0x02, 0x03, 0xf1, 0xe7, 0x01, 
	0xeb, 0x0b, 0xe6, 0x0d, 0xf6, 0xf0, 0x0c, 0x04, 0xf0, 0x06, 0xf3, 0x0e, 
	0xe8, 0xe6, 0xfe, 0x09, 0xeb, 0xfc, 0xef, 0xf7, 0xf0, 0x0d, 0xf1, 0xef, 
	0xfd, 0xff, 0xfb, 0x05, 0xfe, 0xff, 0x00, 0xfd, 0xf5, 0x07, 0xfd, 0x03, 
	0xf3, 0x01, 0x09, 0x06, 0x06, 0xf4, 0xff, 0xf1, 0x05, 0x01, 0xf5, 0xf2, 
	0xf9, 0x0b, 0xfe, 0xf4, 0x06, 0xef, 0x07, 0xff, 0xf2, 0xef, 0xe8, 0x05, 
	0xf4, 0xff, 0xfc, 0xf7, 0xe7, 0xef, 0xf4, 0x02, 0x00, 0x01, 0x06, 0xf9, 
	0xf6, 0xff, 0x05, 0xf5, 0x05, 0xed, 0xea, 0x0e, 0xec, 0xef, 0xe8, 0xf6, 
	0xfc, 0x0a, 0x0e, 0xfa, 0xf7, 0xeb, 0xf8, 0x0d, 0xed, 0xe7, 0x03, 0x0b, 
	0xe9, 0x09, 0x00, 0x06, 0x0f, 0x03, 0x06, 0x0d, 0x05, 0xf8, 0x05, 0x00, 
	0xf9, 0xfb, 0xee, 0xfd, 0x07, 0x04, 0x06, 0x0b, 0x11, 0x0d, 0x07, 0x07, 
	0xfe, 0x0d, 0xf2, 0x02, 0xe7, 0xf4, 0x07, 0xf5, 0x04, 0xf6, 0xed, 0x00, 
	0x11, 0xff, 0xf3, 0x0d, 0xfb, 0xfa, 0xf0, 0x06, 0xef, 0xe8, 0x01, 0x03, 
	0xf4, 0xf3, 0x0e, 0x02, 0xf6, 0x0f, 0x10, 0x09, 0xff, 0xfb, 0xf3, 0x0c, 
	0x01, 0x05, 0x05, 0xf3, 0x02, 0x0c, 0xe9, 0xfc, 0xf6, 0x06, 0xfc, 0x0b, 
	0xf6, 0xeb, 0xff, 0xef, 0xf2, 0xf7, 0xff, 0xfa, 0x04, 0xef, 0xfa, 0x08, 
	0x09, 0xf4, 0xf9, 0xf3, 0xf2, 0xfe, 0x03, 0xf8, 0xf2, 0xfb, 0xfa, 0xfb, 
	0xef, 0xf9, 0xf3, 0xf6, 0xf5, 0xf6, 0x0b, 0x06, 0xf2, 0x03, 0xff, 0x01, 
	0xf8, 0xff, 0xe5, 0x10, 0xe8, 0x0f, 0xf7, 0x03, 0x0c, 0x0b, 0x04, 0xf9, 
	0xf9, 0x00, 0xec, 0xf4, 0xe8, 0xf0, 0xfb, 0x03, 0xee, 0x01, 0xfb, 0x09, 
	0x05, 0xfe, 0xef, 0x03, 0x10, 0xf1, 0x00, 0x0a, 0xfc, 0xf2, 0x00, 0x0e, 
	0xf5, 0xff, 0x05, 0x07, 0x08, 0x0c, 0xf1, 0x0b, 0xf6, 0xf2, 0xfa, 0xf0, 
	0x00, 0x01, 0xf7, 0xfa, 0xef, 0x03, 0x05, 0xf7, 0x0b, 0x11, 0x0a, 0x0f, 
	0x04, 0xf1, 0xf2, 0x0c, 0x08, 0xef, 0xf0, 0xf3, 0x03, 0x00, 0xf8, 0xf4, 
	0x04, 0x01, 0x0e, 0xf4, 0x09, 0xf1, 0xf6, 0x05, 0xeb, 0x10, 0xfe, 0xf0, 
	0xf6, 0x0a, 0x01, 0x11, 0x03, 0xff, 0x08, 0x0f, 0xfb, 0x05, 0xff, 0x0d, 
	0x03, 0xf8, 0x0a, 0xf7, 0xf5, 0xf6, 0xe7, 0xf7, 0xfd, 0xf7, 0xfc, 0x04, 
	0xeb, 0xf0, 0x03, 0xf0, 0xf9, 0xea, 0xe9, 0xfd, 0x00, 0x0a, 0xea, 0x0f, 
	0xf3, 0xf8, 0xf0, 0xf2, 0xfb, 0xf7, 0xea, 0x0d, 0xe5, 0x02, 0x02, 0x07, 
	0xec, 0xf2, 0xe9, 0x0f, 0xf6, 0xf6, 0xf7, 0x0a, 0x00, 0x02, 0xf1, 0x02, 
	0xfb, 0x01, 0xf6, 0x04, 0xf0, 0xff, 0x06, 0x05, 0xfe, 0xf7, 0xf7, 0x08, 
	0xfb, 0xec, 0xef, 0xfe, 0xe7, 0xe7, 0x02, 0xf8, 0xe7, 0xf8, 0xf6, 0x01, 
	0xf1, 0xf3, 0xf4, 0x05, 0x01, 0xfb, 0x03, 0xfe, 0xe9, 0x00, 0xf1, 0x08, 
	0xfb, 0x09, 0xe8, 0xf9, 0xf6, 0x01, 0x08, 0xf1, 0xeb, 0x00, 0xe9, 0x0f, 
	0xfb, 0xf9, 0xf4, 0x04, 0xf0, 0x10, 0xfd, 0x05, 0x03, 0xf3, 0xfc, 0xff, 
	0x02, 0xf9, 0x03, 0x0b, 0x02, 0xf8, 0x06, 0xf2, 0x00, 0x01, 0xea, 0xf3, 
	0xf8, 0x0b, 0xf8, 0x0a, 0xe9, 0x07, 0xf9, 0xf2, 0xf6, 0xf4, 0x00, 0xfc, 
	0xeb, 0x04, 0xf9, 0x05, 0xf7, 0xff, 0x09, 0xf7, 0xf3, 0xeb, 0xee, 0x0a, 
	0xf7, 0xe9, 0xe7, 0xef, 0xeb, 0xff, 0xee, 0xfc, 0x01, 0x00, 0x0e, 0x06, 
	0xea, 0xe7, 0xf6, 0x10, 0xfe, 0xf6, 0xf1, 0x05, 0xf7, 0xf5, 0xef, 0x03, 
	0x0e, 0x0a, 0xf5, 0xf6, 0xf4, 0xea, 0x06, 0x0e, 0xfe, 0xf8, 0xee, 0xfa, 
	0xf3, 0xf3, 0xfc, 0x0a, 0xf9, 0xf5, 0x0a, 0x04, 0x0c, 0x05, 0xf3, 0x0c, 
	0xf0, 0x01, 0x05, 0xf7, 0xf2, 0x0a, 0xfb, 0x02, 0xfb, 0xf6, 0x11, 0x11, 
	0x03, 0xfe, 0x02, 0x0d, 0xee, 0x02, 0xeb, 0xfb, 0x06, 0x06, 0x00, 0xf4, 
	0xf2, 0x04, 0x0b, 0xef, 0xeb, 0x01, 0xef, 0xfe, 0xeb, 0xfa, 0xfe, 0xf7, 
	0xfb, 0x02, 0x00, 0xf2, 0x07, 0xfc, 0x10, 0xf6, 0xfe, 0xea, 0xfe, 0xff, 
	0xf0, 0xfa, 0xfc, 0x0c, 0xf4, 0xf8, 0xf7, 0x04, 0xf4, 0xf5, 0xf1, 0x0d, 
	0x0b, 0x03, 0xfc, 0xef, 0xfc, 0x08, 0xfa, 0xfb, 0xf6, 0xf3, 0xfc, 0xf5, 
	0x0d, 0x10, 0x0a, 0xf3, 0xe9, 0x07, 0x04, 0x0b, 0x04, 0x05, 0xeb, 0x02, 
	0xfb, 0xf5, 0x01, 0xf0, 0x02, 0xff, 0xfc, 0x06, 0x01, 0xfb, 0xf5, 0x10, 
	0xf4, 0xe7, 0xfb, 0x04, 0xf8, 0xf9, 0xf7, 0xf3, 0xf0, 0xfc, 0x00, 0x06, 
	0xf1, 0xef, 0x04, 0x03, 0xf0, 0xf4, 0xf7, 0xfb, 0xf5, 0x10, 0xfa, 0x02, 
	0x07, 0x11, 0x0f, 0xf2, 0x09, 0x05, 0xff, 0xfe, 0xfe, 0xf6, 0xf4, 0x08, 
	0x02, 0x07, 0xfa, 0x00, 0x0d, 0x00, 0xf6, 0xf8, 0xf5, 0xf6, 0xfb, 0xff, 
	0xf1, 0x07, 0xfa, 0xff, 0xf0, 0xf2, 0x06, 0xef, 0xfb, 0x01, 0xf1, 0xfb, 
	0xe9, 0xfd, 0xea, 0xf8, 0xfd, 0xf6, 0xee, 0xf5, 0xff, 0xf0, 0xed, 0x05, 
	0xf7, 0xf9, 0x0c, 0xf1, 0x02, 0x01, 0xfa, 0x0a, 0xfa, 0xf5, 0x05, 0x0d, 
	0xe7, 0x05, 0xf5, 0xfd, 0xf7, 0xfe, 0xfc, 0xfe, 0xf6, 0xee, 0xeb, 0xfe, 
	0xed, 0xf6, 0xf6, 0xff, 0xe9, 0xf7, 0xf9, 0x0c, 0xfe, 0x0f, 0x04, 0x05, 
	0xf4, 0xe9, 0xf3, 0xff, 0x04, 0xf1, 0xe8, 0x04, 0xe9, 0xf7, 0xf1, 0xfb, 
	0x0f, 0xfa, 0xf0, 0x0f, 0xf9, 0xef, 0x04, 0x0c, 0xff, 0xe5, 0x02, 0x0d, 
	0x04, 0x07, 0x02, 0x04, 0xff, 0xf2, 0x03, 0x01, 0x02, 0x07, 0xee, 0x0a, 
	0xed, 0x07, 0xec, 0x0c, 0x03, 0x0b, 0xf2, 0x09, 0xfe, 0x0b, 0xf5, 0x01, 
	0xe6, 0xff, 0xf6, 0x03, 0x04, 0xe9, 0xe9, 0x10, 0xfd, 0xf0, 0xe7, 0x0b, 
	0xf7, 0xfd, 0xf0, 0x04, 0xfa, 0xe9, 0x06, 0xfa, 0xea, 0xf1, 0xf7, 0xfe, 
	0xe6, 0xf1, 0xeb, 0xf1, 0x09, 0xf7, 0x0c, 0x0d, 0x02, 0xef, 0x01, 0xfd, 
	0xf4, 0x02, 0xfe, 0xf5, 0xf2, 0xf2, 0xf6, 0xff, 0x05, 0xf1, 0xf1, 0x0b, 
	0xfd, 0xfb, 0xed, 0xfc, 0xe9, 0xf0, 0xf0, 0xff, 0xf3, 0xf5, 0xfc, 0xf0, 
	0xf4, 0xef, 0x08, 0x10, 0x01, 0x06, 0xe6, 0x0c, 0xfd, 0xfe, 0xec, 0x05, 
	0xf6, 0x0a, 0xed, 0x0d, 0x0f, 0xf8, 0xfb, 0x07, 0xf1, 0xff, 0xea, 0xfd, 
	0x07, 0x02, 0x02, 0x07, 0x03, 0xf0, 0xfc, 0xf7, 0xf4, 0xf7, 0x0a, 0x10, 
	0x05, 0x03, 0xf7, 0x0b, 0xef, 0xf5, 0xf6, 0xf4, 0xe6, 0xf9, 0x07, 0x0b, 
	0x0c, 0x0b, 0x08, 0x06, 0x02, 0xef, 0xe6, 0x02, 0xea, 0xe6, 0x03, 0x10, 
	0xef, 0x0f, 0xf5, 0x0f, 0xef, 0x07, 0xf3, 0x0f, 0xf8, 0x05, 0xf0, 0x0e, 
	0xed, 0xfa, 0xeb, 0x05, 0xfe, 0xfb, 0xe8, 0xf2, 0x0c, 0xf1, 0x01, 0x00, 
	0xfa, 0xed, 0xfd, 0x01, 0xfb, 0xf7, 0xfb, 0xfb, 0x06, 0xfb, 0xe8, 0x05, 
	0x01, 0xf9, 0x00, 0xfb, 0x00, 0x02, 0x05, 0xfa, 0x00, 0xee, 0x00, 0xf8, 
	0xec, 0x05, 0xf7, 0x03, 0xef, 0x00, 0xfd, 0xf3, 0xec, 0xed, 0xfa, 0x06, 
	0x00, 0xfb, 0xfd, 0x02, 0x04, 0x11, 0xf4, 0x03, 0xfd, 0xfd, 0x0e, 0xf0, 
	0x04, 0xf8, 0xe9, 0x0b, 0xf0, 0xf9, 0xf3, 0xf3, 0x05, 0x02, 0xeb, 0x09, 
	0xfe, 0xf8, 0x0b, 0xfd, 0xf9, 0xf3, 0xf9, 0xf1, 0xfd, 0xf1, 0xef, 0x10, 
	0xfe, 0x07, 0xe7, 0xf8, 0x03, 0x06, 0xf0, 0xf0, 0xed, 0xef, 0xea, 0xf9, 
	0x06, 0xf7, 0xf4, 0x02, 0xe9, 0xfd, 0xfa, 0x10, 0xf4, 0x0b, 0x01, 0x0a, 
	0xf6, 0xff, 0xf0, 0xf4, 0xeb, 0xf6, 0xf8, 0xfc, 0xf0, 0x0a, 0xf0, 0x0d, 
	0x00, 0xff, 0xf9, 0x0f, 0xff, 0xf9, 0xeb, 0xfd, 0x02, 0xf3, 0xec, 0x0e, 
	0xf7, 0xfc, 0x03, 0x02, 0x04, 0xf8, 0xf1, 0x09, 0xf6, 0xfc, 0xfb, 0xfc, 
	0xed, 0x05, 0xe6, 0xf2, 0xf3, 0x0c, 0x00, 0x0d, 0xff, 0xfd, 0xfb, 0xf2, 
	0xf6, 0xfc, 0xe9, 0x07, 0x04, 0xeb, 0xfa, 0x00, 0x06, 0xfe, 0x03, 0x11, 
	0xfd, 0x09, 0x0d, 0xf5, 0x05, 0xfc, 0xeb, 0x0c, 0xeb, 0xfb, 0xfa, 0xfc, 
	0xfa, 0x09, 0x02, 0xfc, 0xfd, 0x00, 0xfd, 0x0b, 0x02, 0xe7, 0xfa, 0x0b, 
	0xe7, 0xed, 0xfd, 0x04, 0xf9, 0xfa, 0xfc, 0xef, 0xf3, 0xf1, 0x06, 0x06, 
	0xfc, 0xea, 0xf6, 0xfc, 0xff, 0xee, 0xee, 0x10, 0xff, 0x08, 0xf1, 0xf8, 
	0xfe, 0xf5, 0xfe, 0xf5, 0xe5, 0xf1, 0xef, 0x0f, 0xf7, 0xf1, 0x00, 0xfa, 
	0xfb, 0x01, 0x00, 0xf2, 0xf7, 0xef, 0xf6, 0xff, 0xf0, 0xf4, 0xf2, 0xf6, 
	0xfe, 0xfc, 0xea, 0xfd, 0xfc, 0x08, 0xf1, 0xfc, 0xf8, 0x0d, 0xf9, 0xfe, 
	0x04, 0x00, 0x00, 0x0d, 0xe7, 0xff, 0xf2, 0x03, 0xed, 0xf9, 0xf0, 0xfd, 
	0xf1, 0x10, 0xf4, 0xf9, 0xf6, 0xf5, 0xf3, 0x06, 0x06, 0xed, 0xfa, 0x0d, 
	0x00, 0xf7, 0x07, 0x0f, 0x0f, 0x03, 0xfd, 0xf6, 0xf7, 0xf6, 0x00, 0x0c, 
	0xec, 0xf2, 0xed, 0x09, 0x05, 0xff, 0xe5, 0x10, 0x0e, 0xef, 0xf1, 0xf2, 
	0xeb, 0xee, 0xee, 0x05, 0x00, 0xe6, 0xea, 0xfa, 0xe6, 0x11, 0x05, 0x11, 
	0xf5, 0x03, 0x00, 0xfd, 0xeb, 0xee, 0xf9, 0xf3, 0xee, 0xf3, 0xf6, 0xf3, 
	0x01, 0xf8, 0xf5, 0xf3, 0x09, 0x06, 0x0d, 0x0f, 0xfe, 0xe8, 0xfd, 0x01, 
	0x03, 0xec, 0xeb, 0x0d, 0xfa, 0xf7, 0xf3, 0x06, 0xf3, 0xf4, 0xf1, 0x0b, 
	0xf4, 0xe7, 0xf6, 0x08, 0xf2, 0xf0, 0xff, 0x0d, 0xf0, 0xfa, 0xf9, 0x02, 
	0xf9, 0x05, 0xfc, 0x07, 0xf4, 0xef, 0xfc, 0xf7, 0xeb, 0xed, 0xf7, 0xf6, 
	0x06, 0xfa, 0xf7, 0xfe, 0xf2, 0x07, 0x0c, 0xfb, 0x00, 0xfb, 0x07, 0xfb, 
	0xe8, 0xe7, 0xf8, 0x07, 0xed, 0x0e, 0x04, 0xfb, 0x0c, 0xf4, 0x0a, 0x0c, 
	0xf7, 0xec, 0x04, 0xf9, 0xf4, 0xf4, 0xfd, 0xf1, 0xf1, 0xff, 0xee, 0xf1, 
	0x07, 0xf6, 0x08, 0xf0, 0xfd, 0xfa, 0xf8, 0xfb, 0x06, 0xef, 0xe9, 0x0a, 
	0x03, 0x01, 0x01, 0x0d, 0x06, 0xf8, 0xfa, 0x10, 0x05, 0xfb, 0xe8, 0xfa, 
	0xff, 0xf9, 0xf8, 0xf1, 0xee, 0xf4, 0xf6, 0xf3, 0x03, 0xf0, 0x0e, 0xfd, 
	0xea, 0xef, 0xe8, 0xff, 0xfd, 0xe7, 0x02, 0xf5, 0x01, 0x0b, 0xed, 0x0f, 
	0xf0, 0x0e, 0xff, 0xf8, 0xeb, 0xe6, 0xe6, 0xf1, 0xf8, 0xe7, 0xef, 0xfb, 
	0xf9, 0xf2, 0xfe, 0xef, 0x07, 0x0a, 0xfe, 0xf9, 0xfd, 0xf2, 0xf2, 0x0b, 
	0xf6, 0xf6, 0x00, 0xfb, 0xe6, 0xf6, 0xf0, 0xfa, 0x08, 0xf2, 0x05, 0x04, 
	0xe6, 0x02, 0x06, 0xff, 0xea, 0xe6, 0xe9, 0xf8, 0xed, 0x06, 0x01, 0x05, 
	0xf3, 0xf7, 0x05, 0x0a, 0xfc, 0xea, 0xed, 0x01, 0xfa, 0xf0, 0x05, 0xf9, 
	0x07, 0x03, 0xed, 0xf2, 0x04, 0xfe, 0xf1, 0x10, 0xfe, 0xee, 0xe7, 0xf3, 
	0xfa, 0x02, 0xf2, 0xfb, 0xf6, 0x03, 0xe8, 0xf4, 0x0f, 0x0e, 0x0f, 0x01, 
	0xec, 0x04, 0xec, 0xf2, 0xf0, 0xfe, 0x06, 0xf8, 0xfa, 0xf9, 0x02, 0x0f, 
	0x08, 0x07, 0x05, 0xf7, 0xe8, 0xe8, 0xf8, 0xfc, 0x06, 0xfe, 0xec, 0xfa, 
	0xf8, 0x0e, 0x02, 0x0c, 0xf3, 0xf0, 0xf3, 0x02, 0xed, 0xec, 0xf9, 0xfc, 
	0x05, 0x07, 0xe9, 0xf6, 0x00, 0xf2, 0xee, 0xef, 0x0c, 0xfd, 0xf0, 0xff, 
	0xfe, 0xee, 0xee, 0xf6, 0xf4, 0x07, 0x05, 0xf2, 0xf5, 0x00, 0xed, 0xf9, 
	0xfe, 0x0a, 0x03, 0xf9, 0xf3, 0x05, 0xeb, 0x0b, 0xe5, 0xf8, 0xed, 0x0e, 
	0x04, 0x0b, 0xea, 0x06, 0xf7, 0xef, 0x06, 0xf5, 0x05, 0xf3, 0xff, 0x03, 
	0xf9, 0xf3, 0xee, 0xf8, 0xf3, 0x07, 0xf0, 0xf7, 0x0d, 0x06, 0xf7, 0x0e, 
	0xfb, 0xf7, 0xf7, 0x0c, 0x07, 0xef, 0xf8, 0xf7, 0xfc, 0x09, 0xf2, 0xf3, 
	0x11, 0x0b, 0xf7, 0xf1, 0xec, 0x05, 0xff, 0xf7, 0xed, 0xf9, 0xff, 0xf1, 
	0xfb, 0xfd, 0xf7, 0xfe, 0x02, 0x09, 0x01, 0x09, 0x00, 0xed, 0xea, 0x02, 
	0xf6, 0xf8, 0xe7, 0xfc, 0xfd, 0x09, 0xe9, 0xfc, 0x04, 0x01, 0x03, 0x0e, 
	0x02, 0x01, 0xe8, 0x05, 0x06, 0xee, 0x06, 0xfb, 0xe8, 0x0f, 0xf9, 0x09, 
	0xf1, 0x0a, 0xfd, 0xf8, 0xf7, 0xfa, 0xee, 0xf5, 0xf6, 0xfc, 0xec, 0x0d, 
	0xf7, 0xf6, 0x04, 0x06, 0xf9, 0x05, 0x00, 0xff, 0xe8, 0xef, 0xf2, 0x08, 
	0x00, 0x04, 0xfc, 0xf0, 0xfc, 0xfd, 0x00, 0xff, 0x02, 0x09, 0x11, 0x10, 
	0x03, 0x02, 0xfc, 0x04, 0xf5, 0xee, 0xfd, 0xf3, 0xff, 0xfd, 0xf4, 0xfc, 
	0xfd, 0x02, 0x0c, 0x03, 0xf6, 0xf6, 0xf5, 0xf9, 0x02, 0xf5, 0xfc, 0x06, 
	0xe6, 0x03, 0xfe, 0xfe, 0xf3, 0xff, 0x00, 0x08, 0xfe, 0xf3, 0xe5, 0xfe, 
	0x02, 0x04, 0xf1, 0xfa, 0x04, 0xf5, 0xf8, 0x00, 0xf1, 0xf1, 0xfa, 0x0b, 
	0xee, 0x02, 0xf1, 0x0f, 0xf2, 0xef, 0xfa, 0xf6, 0xf1, 0xf3, 0xf2, 0x09, 
	0x04, 0xf8, 0x08, 0xf9, 0xe8, 0x05, 0xfe, 0xf8, 0x04, 0xe8, 0xf0, 0x08, 
	0x05, 0x04, 0xf9, 0xef, 0x07, 0x0c, 0x03, 0xf2, 0xe5, 0xe5, 0xf3, 0x0e, 
	0xee, 0xfd, 0x02, 0xf9, 0xf8, 0xf9, 0xed, 0x0c, 0x05, 0xf6, 0xfb, 0x05, 
	0xf1, 0x05, 0xea, 0xef, 0xf3, 0xec, 0xe8, 0x11, 0xf6, 0x03, 0xf1, 0x11, 
	0x01, 0xf6, 0xfc, 0xf2, 0xe6, 0xfd, 0xff, 0x0f, 0xfd, 0x07, 0xfb, 0xfb, 
	0x03, 0x00, 0xf7, 0x07, 0x04, 0xf4, 0xf5, 0x0f, 0x04, 0xf1, 0xeb, 0x0d, 
	0x04, 0xed, 0xeb, 0xfc, 0xff, 0x00, 0xfa, 0xff, 0xfe, 0x07, 0x01, 0x11, 
	0xec, 0xf3, 0xfb, 0xf3, 0x01, 0xf4, 0x02, 0xff, 0xfc, 0xf4, 0xeb, 0x0b, 
	0xfd, 0x0b, 0xf8, 0x0c, 0xf5, 0xe6, 0x05, 0x07, 0xe8, 0xe7, 0xf2, 0xf7, 
	0xeb, 0x01, 0xf7, 0x0c, 0x05, 0xfb, 0x0d, 0xf4, 0x05, 0xff, 0xfd, 0xf6, 
	0x01, 0xfc, 0xf1, 0xfb, 0xea, 0xfe, 0x06, 0x0a, 0xf9, 0x09, 0x01, 0x0c, 
	0xfc, 0xfd, 0xed, 0x08, 0xff, 0xfe, 0xf9, 0xf4, 0xf3, 0xf1, 0x04, 0xfd, 
	0x04, 0xf0, 0x08, 0xf7, 0xfa, 0xed, 0xeb, 0x05, 0xf3, 0xf7, 0xfe, 0x0b, 
	0xf6, 0xfd, 0xec, 0x0e, 0x0e, 0x04, 0x09, 0xff, 0xfd, 0x03, 0xf2, 0xfe, 
	0xe9, 0xf6, 0xf8, 0xf7, 0xf1, 0xf5, 0x00, 0xf5, 0x08, 0xf7, 0x09, 0x09, 
	0xff, 0xfb, 0xe7, 0x00, 0x04, 0xf6, 0xf8, 0xfe, 0x00, 0x10, 0x06, 0xf4, 
	0xf0, 0xfd, 0x01, 0xf9, 0x07, 0x00, 0xe8, 0x00, 0xfc, 0xec, 0xf3, 0xf0, 
	0xf6, 0xf7, 0xfd, 0x0e, 0x10, 0x02, 0xfe, 0x0f, 0x05, 0xf5, 0xea, 0x09, 
	0xef, 0xed, 0x03, 0x09, 0xf2, 0x0a, 0xeb, 0x10, 0x0f, 0x10, 0xff, 0xf0, 
	0xee, 0xe9, 0xea, 0xfc, 0xf7, 0xea, 0xe7, 0xfa, 0x01, 0x01, 0xef, 0xfe, 
	0x10, 0x06, 0x0b, 0x06, 0xe9, 0xe6, 0xee, 0xf7, 0xf4, 0xf2, 0xed, 0xf2, 
	0x06, 0x0a, 0xec, 0xf1, 0x0f, 0x0b, 0x10, 0x0d, 0xf4, 0xef, 0x02, 0x01, 
	0xf3, 0xfc, 0x03, 0x03, 0x03, 0xfb, 0xf1, 0x08, 0xf7, 0x09, 0x08, 0xf2, 
	0x00, 0xf6, 0xfe, 0xf4, 0xf9, 0xf2, 0x02, 0x0d, 0xf1, 0xf4, 0xe9, 0xf9, 
	0xff, 0x04, 0x04, 0x02, 0xf2, 0xe7, 0xf2, 0xf6, 0xef, 0xf7, 0xe6, 0x02, 
	0xf4, 0xf7, 0xe6, 0xf3, 0x05, 0x09, 0xfa, 0x0c, 0xf0, 0xf5, 0xf2, 0xff, 
	0x00, 0xee, 0xfd, 0xfc, 0xec, 0x0e, 0xf6, 0xfb, 0x06, 0x01, 0x06, 0x08, 
	0xef, 0x01, 0xe9, 0xfe, 0xfc, 0x01, 0xe7, 0x11, 0xec, 0x06, 0x05, 0x10, 
	0xf4, 0x03, 0x10, 0x06, 0xf9, 0xea, 0xec, 0xf6, 0x02, 0xf9, 0xeb, 0x08, 
	0xe7, 0x0f, 0xf5, 0x0e, 0xf4, 0x0d, 0x0c, 0xf5, 0xf9, 0xf4, 0xfb, 0x11, 
	0xe7, 0xf2, 0xf3, 0x0e, 0xf0, 0xf5, 0xec, 0x0c, 0x09, 0xff, 0x0a, 0xef, 
	0xf4, 0x05, 0xf5, 0xf6, 0xec, 0xfd, 0x03, 0x05, 0xe9, 0xf4, 0xec, 0xf2, 
	0x07, 0x0f, 0x0a, 0xfc, 0xef, 0xfe, 0xef, 0x09, 0x00, 0xeb, 0xec, 0xf9, 
	0xf9, 0x06, 0x01, 0xef, 0x06, 0x09, 0x0b, 0x07, 0xf9, 0xff, 0xef, 0x04, 
	0xf3, 0xfd, 0xf5, 0x06, 0xeb, 0xfa, 0xfc, 0x05, 0x06, 0x0f, 0xfd, 0x0b, 
	0xf3, 0xff, 0xf4, 0xf0, 0x00, 0xfb, 0xe7, 0xf4, 0xe8, 0x11, 0x05, 0x0a, 
	0x05, 0xf7, 0x02, 0x08, 0x03, 0xfa, 0xf1, 0x0d, 0xff, 0xf0, 0x06, 0x04, 
	0x04, 0xf7, 0x04, 0x11, 0x04, 0xf9, 0x11, 0x06, 0xf7, 0xe8, 0x06, 0x07, 
	0xe7, 0xfd, 0xfe, 0x04, 0xf6, 0x07, 0xec, 0xfe, 0x0f, 0x0a, 0xfd, 0x06, 
	0xe9, 0xf6, 0x02, 0x00, 0xf2, 0xf8, 0x02, 0x0a, 0xfd, 0xf7, 0xec, 0x0d, 
	0x02, 0xf7, 0xf5, 0xf8, 0xe8, 0xf8, 0xf9, 0x06, 0xe8, 0xf3, 0xea, 0x02, 
	0xf3, 0x0d, 0x03, 0xfb, 0xff, 0xf8, 0x03, 0x05, 0x03, 0x02, 0xe7, 0x11, 
	0xf6, 0x00, 0x02, 0x09, 0xec, 0xfa, 0xed, 0x10, 0xfa, 0x04, 0xfd, 0x11, 
	0xf9, 0xf4, 0xfa, 0xf9, 0xf8, 0x06, 0xe8, 0x0b, 0xf8, 0xf6, 0xf0, 0xf2, 
	0x02, 0x05, 0xfe, 0x0c, 0x01, 0xf5, 0xeb, 0x0e, 0x07, 0xee, 0xf7, 0x00, 
	0x07, 0xfb, 0xf0, 0x0c, 0xf8, 0xfa, 0x0c, 0x02, 0xf4, 0xed, 0x01, 0x07, 
	0xe8, 0xf6, 0xe8, 0xf3, 0xf9, 0xf6, 0xeb, 0x00, 0x0d, 0x05, 0x00, 0x03, 
	0xfb, 0x02, 0xef, 0xef, 0xf3, 0xf6, 0xe8, 0x00, 0xe8, 0xf6, 0x02, 0xf1, 
	0x11, 0x02, 0xfb, 0xf3, 0xe7, 0x04, 0x03, 0x0e, 0xe7, 0xe9, 0xfb, 0xf6, 
	0x06, 0x07, 0x07, 0xfe, 0x07, 0xfb, 0x0e, 0x05, 0xfc, 0xf0, 0xfa, 0xff, 
	0x05, 0xf0, 0xe8, 0xf1, 0xf1, 0x02, 0xf4, 0x08, 0x06, 0xfb, 0x00, 0x0a, 
	0xf4, 0xf4, 0x05, 0xf2, 0xee, 0xf0, 0x06, 0x03, 0x00, 0xf7, 0xe6, 0x01, 
	0x00, 0x07, 0x11, 0x0a, 0x00, 0xfa, 0xea, 0x00, 0xf4, 0x04, 0xf3, 0x0e, 
	0xf9, 0xf2, 0xed, 0xf9, 0xf6, 0xfd, 0x03, 0x02, 0xe8, 0xf4, 0x07, 0xf9, 
	0xf7, 0xec, 0x04, 0xf8, 0xf3, 0xf9, 0xfc, 0x01, 0xf8, 0x08, 0xfd, 0x0a, 
	0xf0, 0xf1, 0xff, 0x06, 0xe9, 0xfc, 0xf3, 0xf2, 0xfd, 0x10, 0xe7, 0x03, 
	0x08, 0xfd, 0x0c, 0x06, 0x05, 0xfa, 0xfc, 0x0c, 0xf9, 0xf8, 0xfd, 0xff, 
	0xf2, 0x03, 0xf8, 0x06, 0xff, 0xfa, 0x02, 0xf6, 0xfb, 0xfb, 0xf0, 0xf4, 
	0xef, 0xf5, 0x01, 0xf3, 0xed, 0x00, 0x04, 0xff, 0xf8, 0x00, 0x0e, 0xf2, 
	0xfa, 0xf9, 0xf5, 0xf6, 0xf0, 0xf4, 0xf0, 0x0a, 0x07, 0xfd, 0x03, 0x09, 
	0x0b, 0x05, 0xf8, 0xf8, 0xf1, 0x06, 0xef, 0xf7, 0xf7, 0xeb, 0xf2, 0xfa, 
	0x05, 0x04, 0xf0, 0x0d, 0x0c, 0x07, 0x06, 0x0a, 0x04, 0xfb, 0xed, 0x07, 
	0xef, 0xef, 0xfb, 0xf7, 0xfb, 0x0a, 0xf6, 0xfe, 0x01, 0xff, 0x0a, 0xf1, 
	0xf9, 0xe8, 0xee, 0xf0, 0xec, 0xe6, 0x06, 0xfa, 0x06, 0xfe, 0xf7, 0xff, 
	0x07, 0x00, 0x0b, 0x08, 0xfb, 0xe5, 0xf5, 0x0e, 0x04, 0xf4, 0xfd, 0x11, 
	0xf3, 0x02, 0x01, 0xf0, 0x04, 0x04, 0xf9, 0x02, 0xe6, 0xe6, 0x03, 0xef, 
	0xe6, 0xef, 0xf9, 0x0d, 0xf5, 0xfa, 0xf7, 0x07, 0xf4, 0x0e, 0x00, 0x01, 
	0xef, 0xf7, 0xe7, 0x11, 0xeb, 0xf0, 0xf4, 0xfe, 0xf8, 0x01, 0xfd, 0xf9, 
	0xfa, 0x0f, 0x0c, 0x11, 0xf6, 0xfe, 0xf7, 0xf5, 0xfe, 0xf3, 0xee, 0xff, 
	0xfb, 0x0a, 0x05, 0xef, 0xfb, 0x0a, 0xff, 0x0c, 0xf1, 0xea, 0x07, 0x02, 
	0xf5, 0xf0, 0xf8, 0x07, 0xf2, 0x0e, 0xee, 0xff, 0xf4, 0xfc, 0xfb, 0x0d, 
	0xe8, 0xe5, 0xe8, 0x00, 0xfa, 0xfa, 0xf3, 0x0a, 0xf7, 0xf8, 0xf2, 0x0d, 
	0xef, 0xfb, 0xff, 0xf9, 0xf7, 0xf6, 0xf7, 0x0a, 0xf3, 0xee, 0xf8, 0x0d, 
	0xe9, 0xf8, 0xf7, 0xfd, 0xfd, 0xf9, 0x0c, 0xf0, 0x07, 0x00, 0xef, 0xfb, 
	0x00, 0xfa, 0xf1, 0x06, 0xe7, 0xef, 0xed, 0x11, 0xf4, 0x0c, 0x0d, 0x05, 
	0xf4, 0xf8, 0xf1, 0x00, 0xea, 0xf4, 0xec, 0x0a, 0x06, 0xf7, 0xf7, 0xf6, 
	0xf3, 0x01, 0x08, 0xf6, 0xf3, 0x02, 0xf5, 0xf8, 0xfa, 0xf8, 0xfa, 0x05, 
	0x04, 0x0e, 0xed, 0xf4, 0xf9, 0x0b, 0xf8, 0xf1, 0xec, 0x07, 0xfd, 0x01, 
	0xe6, 0xe5, 0xf2, 0x10, 0xf5, 0xf7, 0xe6, 0x04, 0xf7, 0xfb, 0x0a, 0xf3, 
	0xea, 0xf2, 0xf2, 0x0b, 0xf0, 0xfb, 0xf8, 0x0f, 0xec, 0x11, 0xfb, 0x02, 
	0xfb, 0x0c, 0x10, 0x04, 0x04, 0xfd, 0xf8, 0xf1, 0xf3, 0xed, 0x03, 0xf9, 
	0xe8, 0x11, 0xfd, 0x00, 0xf7, 0x07, 0x10, 0xfb, 0xed, 0x06, 0xed, 0xff, 
	0xe6, 0x06, 0x03, 0xf0, 0xe7, 0x0a, 0xf1, 0x09, 0xfc, 0x0b, 0xf3, 0x09, 
	0xef, 0x06, 0x06, 0x03, 0xe6, 0xe7, 0xf1, 0x01, 0xfd, 0x02, 0xfd, 0x06, 
	0x08, 0xf1, 0x05, 0xfc, 0xef, 0xe7, 0x06, 0xf2, 0xeb, 0x02, 0x00, 0xff, 
	0xf1, 0x0a, 0x04, 0x05, 0x0e, 0x0d, 0xfc, 0x01, 0xfc, 0xfa, 0xff, 0xf5, 
	0xe8, 0xef, 0x07, 0xfe, 0xf4, 0xfa, 0x03, 0x0c, 0x0f, 0x08, 0xff, 0xfd, 
	0xfd, 0xf1, 0xfd, 0x0f, 0xf9, 0x07, 0x10, 0x0a, 0xfc, 0xf8, 0x0e, 0x09, 
	0x0d, 0x0d, 0xff, 0xf0, 0xf7, 0x0b, 0x04, 0x10, 0x09, 0x10, 0x10, 0xf9, 
	0x0a, 0x07, 0x00, 0x00, 0xf4, 0xff, 0xf7, 0xef, 0xf0, 0x09, 0xff, 0x06, 
	0x04, 0xf1, 0x0f, 0x00, 0xfe, 0x0f, 0xf1, 0x0d, 0xf9, 0xf4, 0x0d, 0x0b, 
	0x08, 0x06, 0x0d, 0xfa, 0xf3, 0x0f, 0xfe, 0x07, 0x04, 0xf5, 0xf6, 0x0e, 
	0xf5, 0x06, 0xf5, 0x10, 0xf2, 0xf5, 0xf6, 0xf4, 0xf2, 0xf9, 0xfa, 0xf0, 
	0xf2, 0x0d, 0x0d, 0x0e, 0xf9, 0xfe, 0xfa, 0xf7, 0x01, 0x0c, 0xff, 0x10, 
	0xfe, 0xf7, 0xf7, 0x0f, 0x0b, 0xf1, 0xf8, 0xf2, 0xf4, 0xfb, 0xfb, 0xfe, 
	0x03, 0xf7, 0x09, 0xfb, 0x0a, 0xf0, 0x05, 0x0a, 0xfe, 0xff, 0xfd, 0x0b, 
	0xfd, 0x0a, 0xf6, 0x01, 0x00, 0x08, 0xff, 0xf5, 0xfd, 0xf1, 0xfa, 0xf0, 
	0x0b, 0xff, 0x06, 0xf1, 0x0f, 0x10, 0xff, 0xf0, 0x05, 0xfb, 0x0e, 0x01, 
	0x0b, 0x11, 0xef, 0xf1, 0xfc, 0xf1, 0x01, 0x0f, 0xfd, 0xf1, 0xfa, 0xf4, 
	0x0e, 0x06, 0x0d, 0x05, 0x07, 0xf5, 0x0d, 0xf8, 0xf9, 0x0d, 0x10, 0x01, 
	0x09, 0x0c, 0xf8, 0xfd, 0xfe, 0x06, 0x01, 0xfe, 0xfa, 0xf3, 0xfb, 0xff, 
	0x0e, 0xf7, 0xf8, 0xf6, 0x06, 0x0c, 0x06, 0xf5, 0x0e, 0xf6, 0xf5, 0xf8, 
	0xef, 0x08, 0x04, 0xef, 0xfe, 0xff, 0xfc, 0xf4, 0xfd, 0x03, 0xfa, 0x07, 
	0xf0, 0xff, 0xfc, 0xfa, 0x00, 0x0e, 0x09, 0x0d, 0x0c, 0x05, 0x0e, 0x06, 
	0xff, 0xff, 0x02, 0xf5, 0xf3, 0xfd, 0xfd, 0x04, 0x02, 0x03, 0xf4, 0x08, 
	0xf6, 0x05, 0x11, 0x05, 0x09, 0x10, 0x06, 0xf5, 0xfb, 0x06, 0xf3, 0x0b, 
	0x10, 0x10, 0xf5, 0xf4, 0xef, 0x08, 0xf6, 0xfe, 0xff, 0x01, 0xfb, 0x02, 
	0xf0, 0xfe, 0xf2, 0xfa, 0x02, 0x0a, 0xf4, 0xfb, 0xf5, 0xf9, 0x06, 0x0e, 
	0x00, 0x00, 0xf6, 0xfe, 0xf4, 0x10, 0x01, 0xf8, 0xf7, 0x10, 0x03, 0x06, 
	0x02, 0x03, 0xf0, 0xf9, 0xf1, 0xf5, 0xff, 0x06, 0x03, 0xf5, 0x04, 0x00, 
	0xf1, 0xf4, 0xf1, 0xff, 0x07, 0x04, 0xf0, 0xf3, 0xf7, 0x03, 0xf1, 0xf0, 
	0xfb, 0xf5, 0xf5, 0xf0, 0xf8, 0x04, 0x0f, 0xfc, 0x08, 0xef, 0x07, 0xf4, 
	0x04, 0xff, 0xfb, 0x08, 0xfc, 0xf1, 0x0b, 0x00, 0xfc, 0xfe, 0xf6, 0xf8, 
	0xff, 0xf8, 0xfe, 0x08, 0x11, 0xf0, 0xff, 0x04, 0xf2, 0xf5, 0x0c, 0x11, 
	0xf6, 0x04, 0xff, 0xf1, 0xf4, 0x0a, 0xf2, 0xfd, 0xfa, 0x07, 0x0f, 0x0b, 
	0xf5, 0xf6, 0xf4, 0x0a, 0xf6, 0x01, 0xfd, 0xf5, 0xf5, 0xf1, 0xf2, 0x05, 
	0xf0, 0x02, 0xf2, 0x0a, 0xf7, 0x0e, 0x03, 0x09, 0x0f, 0xfc, 0x0d, 0xff, 
	0xf5, 0xf4, 0xfd, 0xff, 0xfd, 0xfc, 0x09, 0xf1, 0xf6, 0x0d, 0x08, 0x00, 
	0xfb, 0x04, 0x05, 0xfe, 0x01, 0x04, 0xf1, 0xf0, 0xf8, 0xf3, 0x00, 0xf7, 
	0xf8, 0x0b, 0x02, 0x0b, 0xf8, 0xf6, 0xef, 0x05, 0x07, 0xfe, 0xf3, 0x00, 
	0xf4, 0xfc, 0x10, 0xef, 0xf2, 0xf2, 0xfc, 0x07, 0xf4, 0x0b, 0xfa, 0xfd, 
	0x0d, 0xfe, 0xfe, 0xf5, 0xf1, 0x0f, 0xfd, 0x0b, 0xfd, 0xfb, 0xf4, 0x0e, 
	0xfa, 0x0b, 0x0f, 0x09, 0xf4, 0x03, 0xf8, 0x03, 0x0b, 0xfd, 0x10, 0x0d, 
	0xfe, 0x01, 0x00, 0x08, 0xfe, 0x03, 0x01, 0x04, 0xfb, 0x0b, 0xf8, 0x04, 
	0xef, 0xf8, 0x04, 0x02, 0x0d, 0x05, 0xf5, 0x0b, 0x06, 0x00, 0x0b, 0xf0, 
	0x00, 0x08, 0xef, 0xef, 0x04, 0x01, 0xfe, 0x05, 0xf1, 0x02, 0xf5, 0x08, 
	0xf3, 0xf9, 0xfc, 0x00, 0x02, 0xfc, 0xf9, 0xf0, 0xf5, 0xf4, 0xf4, 0xfd, 
	0xf2, 0x09, 0xf6, 0x09, 0xf2, 0xf1, 0x0e, 0xf1, 0x02, 0xf8, 0xf8, 0x01, 
	0xf8, 0x0f, 0xf2, 0xf1, 0x10, 0xf7, 0x0c, 0xf9, 0x0d, 0x10, 0x00, 0x02, 
	0x00, 0xf0, 0x0f, 0xf7, 0xfe, 0xfe, 0x0b, 0xf4, 0x0a, 0x0e, 0xfc, 0x05, 
	0xfc, 0x05, 0x02, 0x06, 0xfa, 0xfa, 0x0f, 0xff, 0xff, 0xf2, 0xfb, 0xfa, 
	0xfb, 0xf1, 0xf6, 0x03, 0xf2, 0xfe, 0xf4, 0xf8, 0x10, 0x08, 0x0f, 0x01, 
	0x08, 0xf7, 0xf6, 0x01, 0xf8, 0xf1, 0x0e, 0x06, 0xf1, 0xf4, 0x09, 0x09, 
	0xf4, 0xf5, 0x0c, 0xf7, 0x0f, 0xef, 0xf0, 0x0a, 0x0c, 0xf5, 0x0d, 0xff, 
	0xf8, 0x05, 0xf0, 0xf1, 0x0e, 0x0c, 0x05, 0x00, 0xfd, 0x07, 0xff, 0x0c, 
	0xf1, 0x09, 0x0b, 0xfc, 0x0d, 0x09, 0xf9, 0xfb, 0x06, 0xf8, 0x0d, 0x10, 
	0xf7, 0xf4, 0x0c, 0x0e, 0xfe, 0x06, 0xf8, 0xff, 0x0e, 0xf4, 0x02, 0x05, 
	0xf5, 0x08, 0xf0, 0xf8, 0x00, 0xf8, 0x08, 0x09, 0xfc, 0xfd, 0xfa, 0x06, 
	0xf4, 0x0d, 0xf6, 0xf4, 0x09, 0x0b, 0x0a, 0xfd, 0x0e, 0x0d, 0xfe, 0x09, 
	0x0a, 0x0b, 0xf6, 0x02, 0x0a, 0x0f, 0xfd, 0x02, 0xf5, 0xf3, 0x0f, 0xf3, 
	0x10, 0xef, 0x0a, 0xf2, 0x0b, 0x07, 0x10, 0x0d, 0xf6, 0x0e, 0x09, 0xfe, 
	0x05, 0x06, 0x0f, 0x04, 0x10, 0x01, 0x05, 0x0a, 0xfe, 0x03, 0xfe, 0xf4, 
	0x09, 0x07, 0x00, 0xf2, 0xf2, 0x01, 0x0e, 0x0a, 0x05, 0x04, 0x08, 0xfb, 
	0xfd, 0xfc, 0x08, 0x05, 0xf8, 0xef, 0x09, 0xf9, 0xff, 0xff, 0x03, 0x05, 
	0x03, 0xf7, 0xff, 0xf3, 0x03, 0x0a, 0xf1, 0x03, 0x00, 0x0f, 0xfa, 0xf6, 
	0x06, 0x09, 0xfe, 0x0b, 0xf0, 0xf1, 0xf8, 0xf7, 0x08, 0x01, 0x0d, 0xf6, 
	0x08, 0xf2, 0x0f, 0x04, 0x09, 0xf2, 0xf0, 0xf9, 0x01, 0xf5, 0xf8, 0x07, 
	0x06, 0x09, 0x10, 0x09, 0xf0, 0x0d, 0x09, 0xf0, 0xf6, 0x0d, 0xef, 0x0f, 
	0xff, 0xfb, 0x00, 0x05, 0x0b, 0x01, 0xf5, 0x0a, 0xfa, 0xff, 0x07, 0x0f, 
	0xff, 0xf3, 0xf9, 0x00, 0x0f, 0xf0, 0xf3, 0xf6, 0x0a, 0xf0, 0xf3, 0xf9, 
	0xff, 0x07, 0x00, 0xf4, 0xfc, 0x0b, 0xf9, 0x0d, 0x05, 0x08, 0xfa, 0xf7, 
	0xfe, 0xf7, 0xfe, 0xf0, 0x00, 0xf5, 0x0b, 0x00, 0xf2, 0x05, 0x03, 0xfa, 
	0xff, 0xf6, 0x0f, 0x0f, 0xf8, 0xf4, 0x0d, 0xf7, 0x04, 0xfc, 0x00, 0xfd, 
	0xfb, 0xf6, 0x11, 0x0d, 0xfa, 0xfc, 0xf1, 0x06, 0x11, 0x06, 0xf3, 0x0c, 
	0xfb, 0x02, 0x0d, 0xef, 0xfe, 0x02, 0xfb, 0x0f, 0xf9, 0xf3, 0xf8, 0x0c, 
	0x10, 0x0b, 0x08, 0xf4, 0xf1, 0xfc, 0xf6, 0x04, 0xfd, 0x0e, 0x04, 0x01, 
	0x09, 0x07, 0x08, 0xf4, 0xf9, 0x00, 0xfe, 0x10, 0xfc, 0xf8, 0x08, 0xff, 
	0xfe, 0x0c, 0xfa, 0xf9, 0xf6, 0xfb, 0x07, 0xfb, 0xfa, 0xfa, 0xf0, 0xf0, 
	0xf8, 0xf2, 0xf2, 0xf4, 0x01, 0xf6, 0x01, 0xf2, 0x0f, 0x02, 0xf5, 0xef, 
	0x0c, 0x09, 0x10, 0xf4, 0xfa, 0xfa, 0xf0, 0xf2, 0x08, 0x0b, 0xfa, 0xf4, 
	0xfc, 0xfb, 0xf7, 0xf2, 0xfb, 0x01, 0xf2, 0x10, 0x04, 0x0c, 0xfc, 0x0b, 
	0x03, 0xf1, 0xf8, 0xf6, 0xf4, 0xf2, 0xf9, 0x10, 0xf9, 0x0e, 0xf5, 0x03, 
	0x0f, 0x0d, 0x04, 0x09, 0xf6, 0xfc, 0xf8, 0x0d, 0xf4, 0x06, 0xfc, 0xf5, 
	0xf7, 0x0a, 0xf5, 0xfe, 0x01, 0x08, 0x08, 0x01, 0x07, 0xf7, 0xff, 0x05, 
	0x08, 0x09, 0xfb, 0xf1, 0xf4, 0x0f, 0xf2, 0x0f, 0x0b, 0xf3, 0x05, 0x0e, 
	0xfb, 0x06, 0x0a, 0xf3, 0xf7, 0xf7, 0xff, 0xf7, 0xf7, 0x07, 0x07, 0x05, 
	0x04, 0x09, 0xfe, 0xf6, 0x07, 0xff, 0x10, 0x04, 0x01, 0xf0, 0xf8, 0x0e, 
	0xf4, 0xf1, 0x0b, 0x0b, 0xf8, 0xf6, 0x0a, 0xfc, 0xf6, 0xfc, 0xf9, 0xfc, 
	0x01, 0xf4, 0x0e, 0x06, 0x08, 0xf4, 0xf3, 0xf9, 0xf0, 0xfb, 0xf9, 0x06, 
	0xfd, 0xff, 0x04, 0x0b, 0x03, 0xfa, 0x02, 0xf4, 0x0d, 0xf0, 0x0f, 0xfe, 
	0x04, 0xf4, 0x0d, 0x0e, 0xfc, 0x07, 0xef, 0xff, 0xfd, 0xf5, 0x05, 0xf3, 
	0xfc, 0x11, 0xf7, 0x06, 0x10, 0xf1, 0x0e, 0x0a, 0xf7, 0x0a, 0x0e, 0xff, 
	0x0b, 0x08, 0x05, 0xfe, 0xf4, 0x0e, 0x01, 0x10, 0x06, 0xfb, 0x10, 0x10, 
	0x05, 0xfe, 0xfd, 0x0b, 0xfb, 0x0f, 0xfe, 0xf9, 0x07, 0x0f, 0xf1, 0x0e, 
	0xfa, 0xf1, 0x0e, 0xf1, 0xf0, 0x0f, 0xf4, 0x04, 0xfb, 0x0e, 0x09, 0x0a, 
	0xfd, 0x03, 0x00, 0xf9, 0xf4, 0x05, 0x11, 0xf7, 0xfb, 0x11, 0x10, 0x07, 
	0x09, 0xf9, 0xf7, 0xf5, 0x0d, 0x01, 0x10, 0x01, 0xf3, 0x0e, 0xfd, 0xf2, 
	0x04, 0x09, 0x07, 0xf7, 0xf6, 0x07, 0x0e, 0x00, 0xfa, 0xfa, 0x0f, 0x01, 
	0x05, 0x03, 0xef, 0x0f, 0x0e, 0x05, 0x09, 0xf1, 0x09, 0x0e, 0x03, 0xfd, 
	0x10, 0x0b, 0xfe, 0x01, 0xfb, 0xf3, 0xf0, 0xfc, 0xf7, 0xf0, 0x09, 0x0d, 
	0xf6, 0xf3, 0x0f, 0xf1, 0xfd, 0x0a, 0xf7, 0xef, 0x09, 0x0a, 0x05, 0xef, 
	0x0e, 0x0c, 0x10, 0xf2, 0x10, 0x09, 0xf8, 0xf8, 0x0a, 0x0b, 0xf0, 0x0b, 
	0x0a, 0xf7, 0xff, 0x05, 0x11, 0xfd, 0x0c, 0xf5, 0x00, 0x04, 0x11, 0x0b, 
	0x02, 0x08, 0xef, 0xf3, 0xff, 0xf4, 0x07, 0xfc, 0x02, 0xf2, 0xf1, 0x02, 
	0xf7, 0x07, 0x0b, 0x0e, 0x09, 0x06, 0x05, 0x05, 0xfa, 0xfc, 0x00, 0xfa, 
	0xfd, 0xfe, 0x01, 0xf7, 0xf0, 0x01, 0x04, 0x00, 0x0d, 0xfe, 0x01, 0x03, 
	0xf2, 0x02, 0x0d, 0x03, 0xf3, 0x00, 0x02, 0xf5, 0x08, 0x0f, 0x0f, 0xf0, 
	0x0d, 0xf7, 0x0a, 0x08, 0x09, 0x0c, 0x0d, 0x0f, 0xf1, 0xfb, 0xff, 0xf8, 
	0xf2, 0x03, 0x11, 0x0e, 0xf9, 0xf3, 0x0f, 0x0d, 0xfc, 0x01, 0xff, 0x0f, 
	0x07, 0xf2, 0xf6, 0x0f, 0x05, 0x0d, 0xf9, 0xf7, 0xf1, 0x07, 0xf0, 0x0d, 
	0x0b, 0x01, 0xf2, 0xf0, 0xf6, 0xef, 0xf3, 0x10, 0x01, 0x0f, 0x03, 0x10, 
	0xf8, 0x03, 0x0b, 0xf8, 0xf4, 0x10, 0x04, 0x0b, 0xf2, 0x0c, 0x05, 0xfb, 
	0xfa, 0xf1, 0x07, 0x10, 0xfc, 0x02, 0x06, 0x0a, 0xfa, 0x08, 0x0e, 0xfd, 
	0xf8, 0x0a, 0x0e, 0x00, 0xf6, 0xf9, 0x04, 0xfa, 0xf2, 0xfc, 0x0d, 0x0c, 
	0x04, 0xf3, 0xf2, 0xfd, 0xfe, 0xfa, 0x04, 0xf8, 0x08, 0x03, 0x06, 0x0a, 
	0xfd, 0xfe, 0x00, 0xf7, 0xfd, 0x0f, 0x00, 0x08, 0xf3, 0x0f, 0x0e, 0xfc, 
	0x11, 0x0c, 0x03, 0x05, 0x08, 0x03, 0x00, 0x07, 0x06, 0xf6, 0xf3, 0xfc, 
	0xf7, 0xf4, 0x0f, 0x00, 0x06, 0x05, 0xfc, 0x04, 0xff, 0x07, 0x05, 0xfb, 
	0x09, 0xfe, 0x0f, 0x0d, 0x02, 0xf3, 0x00, 0xfe, 0x02, 0x0f, 0xf9, 0x0d, 
	0x00, 0xfb, 0x0e, 0x0e, 0xf2, 0x11, 0xf7, 0x06, 0xf3, 0xf0, 0x11, 0xf6, 
	0x05, 0x0f, 0x0c, 0xf1, 0x00, 0x0f, 0xf5, 0x0b, 0x06, 0xfe, 0x01, 0x00, 
	0x08, 0xfa, 0xfc, 0xf6, 0xf5, 0x02, 0xf5, 0x05, 0xff, 0x09, 0x07, 0x04, 
	0xef, 0xf8, 0xf1, 0x03, 0xf2, 0xf8, 0x0c, 0x0a, 0x06, 0xf3, 0xf2, 0xf5, 
	0x0c, 0x02, 0xf8, 0x00, 0x08, 0x00, 0xf2, 0xfa, 0xfd, 0xf5, 0xef, 0x01, 
	0xfa, 0x10, 0x0f, 0x01, 0x01, 0xf9, 0x03, 0x05, 0xef, 0x0f, 0x0a, 0xf8, 
	0xfa, 0x05, 0xf7, 0xf7, 0x01, 0x00, 0x03, 0x04, 0x00, 0x06, 0x10, 0x06, 
	0xfb, 0x01, 0xf1, 0x07, 0x0b, 0xfe, 0xfc, 0xf5, 0x10, 0x09, 0x08, 0x11, 
	0xf7, 0xfe, 0xf9, 0x03, 0xf5, 0x02, 0xf8, 0xf7, 0xfb, 0x10, 0x0d, 0xf8, 
	0xf7, 0x0a, 0x02, 0xf6, 0x00, 0xfd, 0xfb, 0x0c, 0x10, 0xf0, 0x05, 0xf7, 
	0xfa, 0x04, 0x0c, 0x11, 0x09, 0x09, 0xfa, 0xf0, 0x03, 0x07, 0xf7, 0x04, 
	0xfb, 0x10, 0xef, 0x0c, 0x0b, 0x0f, 0xf9, 0x0d, 0xff, 0x00, 0x06, 0xf8, 
	0xfc, 0x01, 0xf9, 0xfd, 0x08, 0x00, 0xef, 0x08, 0x09, 0x03, 0xef, 0xef, 
	0x0a, 0xfa, 0x10, 0x00, 0xf3, 0x10, 0xf4, 0x03, 0xf8, 0xf6, 0x04, 0xfd, 
	0x0b, 0xf0, 0xf1, 0xf3, 0xf9, 0xf2, 0xf8, 0x03, 0xf2, 0xf3, 0x04, 0xfe, 
	0x03, 0x04, 0x11, 0xfd, 0xf1, 0x01, 0xfb, 0x0a, 0x0a, 0xf2, 0xfe, 0xf2, 
	0x01, 0x01, 0xf3, 0xf6, 0xf4, 0xfb, 0xef, 0x07, 0xfe, 0x04, 0x0f, 0x08, 
	0xf0, 0x08, 0xf4, 0xfa, 0xf5, 0xf8, 0x08, 0xf2, 0xf4, 0x0c, 0xfb, 0x01, 
	0x0e, 0x02, 0xfa, 0x0b, 0xff, 0xf1, 0xff, 0x04, 0x0a, 0xf6, 0xf4, 0xf9, 
	0xfa, 0x03, 0xfd, 0xfa, 0x0f, 0xf4, 0x10, 0xef, 0x03, 0xfe, 0x02, 0xf0, 
	0xff, 0x02, 0x01, 0xfa, 0xf0, 0xff, 0xff, 0x0f, 0xfe, 0x08, 0x03, 0xf9, 
	0x09, 0xfe, 0xfe, 0x08, 0x07, 0x09, 0xfa, 0x0c, 0xfa, 0xfb, 0xf8, 0xfc, 
	0xf8, 0x11, 0xfd, 0xf9, 0xfd, 0x0f, 0xfd, 0xef, 0x01, 0xfc, 0x05, 0xff, 
	0x0a, 0x09, 0x0a, 0xf2, 0xf3, 0x03, 0xfd, 0x00, 0x0e, 0xef, 0xf0, 0x03, 
	0xff, 0x0f, 0x03, 0xf9, 0x09, 0x01, 0xfe, 0xf6, 0xef, 0xf0, 0x01, 0xf6, 
	0x0b, 0xfd, 0x0e, 0xf0, 0x09, 0x04, 0xf0, 0x10, 0xf5, 0xfc, 0x07, 0xf2, 
	0xf5, 0x09, 0x07, 0x0d, 0x10, 0x05, 0xf3, 0x0b, 0x0c, 0x06, 0xf0, 0x05, 
	0x0f, 0xf7, 0x07, 0xf3, 0x10, 0x0a, 0xf0, 0xff, 0xef, 0xf3, 0xfa, 0xf3, 
	0x04, 0x0b, 0x01, 0xfd, 0xf7, 0x00, 0x09, 0x01, 0xff, 0x09, 0xfc, 0x0e, 
	0xfe, 0xfc, 0xf3, 0x10, 0x10, 0x04, 0x00, 0x01, 0x11, 0x01, 0xf9, 0xf0, 
	0xf1, 0x0f, 0xf0, 0x08, 0x09, 0x02, 0xf7, 0x0c, 0xf1, 0xf4, 0x08, 0xf7, 
	0xf2, 0x10, 0xf2, 0x08, 0x0b, 0x0e, 0xf1, 0xf4, 0x00, 0xfe, 0x00, 0x06, 
	0xf2, 0x0b, 0xfc, 0xf2, 0xf7, 0xf6, 0x0f, 0x01, 0x01, 0x00, 0xf3, 0xf8, 
	0xf8, 0x0d, 0xfa, 0x0d, 0x00, 0x0e, 0xf3, 0xfe, 0xf1, 0x06, 0x04, 0xfb, 
	0x0d, 0x00, 0x10, 0x07, 0x02, 0x09, 0x0b, 0x08, 0x0f, 0xfc, 0xff, 0x04, 
	0xfd, 0x09, 0x0a, 0xf2, 0x08, 0xf6, 0xff, 0x0e, 0xf4, 0x04, 0xf8, 0xef, 
	0x07, 0xf9, 0xf9, 0xfe, 0x0d, 0xf7, 0xf4, 0x06, 0x05, 0x0e, 0xf2, 0xf8, 
	0xf1, 0x04, 0x11, 0x04, 0x01, 0x10, 0x01, 0x10, 0xf5, 0xf6, 0xef, 0xf9, 
	0xfa, 0xfd, 0xf8, 0xf4, 0xf8, 0xf2, 0x0f, 0xfe, 0x06, 0x00, 0xfd, 0xf7, 
	0x07, 0x0a, 0xf1, 0xf3, 0x0d, 0xf6, 0xfc, 0xf1, 0xf7, 0x11, 0x08, 0xfe, 
	0x08, 0x0a, 0x00, 0xfd, 0xf3, 0x03, 0xf3, 0xf0, 0x0a, 0xf4, 0xf1, 0xfc, 
	0x0a, 0x11, 0x03, 0xfa, 0x03, 0x04, 0x01, 0x07, 0xfb, 0x04, 0xef, 0x0e, 
	0x0c, 0x0a, 0x08, 0x08, 0xf2, 0x01, 0x04, 0xf9, 0x02, 0xf9, 0x10, 0xf2, 
	0x04, 0x04, 0x0a, 0xf5, 0xf5, 0x06, 0x10, 0x07, 0xfa, 0xfb, 0x0a, 0x06, 
	0xf1, 0x04, 0x0c, 0x04, 0x01, 0x01, 0x00, 0x10, 0x01, 0x09, 0xef, 0x0b, 
	0xf2, 0xf0, 0x01, 0xff, 0xf0, 0x05, 0xf8, 0x0c, 0xf1, 0xfb, 0xf6, 0x01, 
	0x0f, 0x10, 0xfc, 0xfb, 0xf8, 0x05, 0xf5, 0x03, 0x05, 0xfb, 0xf4, 0xff, 
	0x02, 0x07, 0x06, 0x01, 0xfd, 0xf6, 0xf8, 0xf8, 0x0c, 0xf3, 0x0d, 0xfc, 
	0xfc, 0xf5, 0x0f, 0x07, 0xf4, 0x07, 0xfe, 0x10, 0xfd, 0x0a, 0x07, 0xf0, 
	0xf7, 0x06, 0x04, 0xf5, 0xf8, 0xf7, 0x04, 0xf5, 0xf1, 0xfc, 0xf7, 0x08, 
	0xfb, 0x07, 0x0a, 0xf4, 0x0c, 0x05, 0xfd, 0x0e, 0x06, 0x0e, 0xfd, 0x07, 
	0x04, 0x04, 0xf7, 0x10, 0x0a, 0x00, 0xfa, 0x09, 0xf6, 0x08, 0x01, 0x0a, 
	0x04, 0x10, 0xff, 0xf8, 0x0d, 0x0a, 0x02, 0xfa, 0x06, 0x08, 0xf3, 0xf3, 
	0xf8, 0x07, 0xf3, 0xf9, 0xfa, 0x0c, 0x10, 0x08, 0x11, 0xf0, 0xfe, 0x10, 
	0xfa, 0x04, 0xf7, 0x00, 0x0a, 0x06, 0x06, 0xf6, 0x05, 0xf1, 0xf6, 0xf9, 
	0x10, 0xef, 0x04, 0xfc, 0xf2, 0xfa, 0x0c, 0x08, 0xfb, 0x0d, 0x10, 0x0a, 
	0xfd, 0xf2, 0x09, 0xfa, 0xf9, 0xfc, 0x05, 0xf6, 0x10, 0x02, 0xf3, 0xf6, 
	0x0b, 0x11, 0xfd, 0x03, 0x05, 0xfc, 0xf0, 0x0e, 0xf4, 0x08, 0x10, 0xf7, 
	0x0f, 0x04, 0xf5, 0x06, 0xf9, 0xf6, 0xf9, 0x0c, 0x0a, 0xfb, 0x03, 0x09, 
	0x08, 0x06, 0xfc, 0xf1, 0xff, 0xff, 0x10, 0x0b, 0x0c, 0x01, 0x02, 0x01, 
	0x0e, 0xf7, 0x0d, 0xfe, 0x11, 0x0a, 0xf5, 0xf5, 0xf2, 0xf8, 0x03, 0xf4, 
	0x0e, 0xf9, 0xf4, 0xfd, 0x0d, 0x03, 0xf2, 0x0d, 0xf3, 0xfc, 0x02, 0x03, 
	0x0b, 0xf6, 0x0d, 0xf6, 0x04, 0xfd, 0x02, 0x0c, 0x10, 0x0f, 0xf2, 0x04, 
	0x01, 0xf8, 0xfc, 0xf8, 0x01, 0x10, 0xf2, 0x08, 0x0a, 0xef, 0xf1, 0x08, 
	0xfe, 0x08, 0x01, 0x0f, 0x0a, 0x06, 0x0c, 0x0c, 0x0b, 0x06, 0xfa, 0xf5, 
	0x11, 0xf3, 0x0d, 0x00, 0x0c, 0x07, 0x10, 0xfb, 0x08, 0x04, 0x0c, 0xf8, 
	0xf6, 0xff, 0x0a, 0x07, 0xf4, 0x0c, 0xff, 0x03, 0x09, 0xf3, 0x02, 0xf4, 
	0xfc, 0xfb, 0xfb, 0xf2, 0xfc, 0xf6, 0x0b, 0xf3, 0xf8, 0x0d, 0x0e, 0x11, 
	0x11, 0x0d, 0x08, 0x05, 0x00, 0x08, 0x03, 0x0f, 0xf8, 0x02, 0xf9, 0x02, 
	0xf7, 0x0f, 0x01, 0xf4, 0x10, 0xf6, 0x0d, 0x07, 0xf2, 0xfc, 0xf9, 0x06, 
	0xfb, 0xef, 0x04, 0x06, 0x0b, 0x0f, 0xf8, 0x04, 0x09, 0xff, 0xf2, 0x0c, 
	0xf3, 0x0b, 0x09, 0xfe, 0x08, 0x00, 0xf4, 0xf8, 0x11, 0xf5, 0xef, 0x11, 
	0xf8, 0x07, 0x00, 0xfb, 0x07, 0x0d, 0x0a, 0xff, 0xf4, 0x01, 0x0b, 0x0c, 
	0x04, 0xf3, 0x0d, 0xfd, 0x0d, 0xf2, 0xf0, 0x0f, 0xf0, 0x0c, 0x01, 0xfc, 
	0x0f, 0xef, 0x11, 0x04, 0xf1, 0xfa, 0xfc, 0x0c, 0xf5, 0xf7, 0xf9, 0xfc, 
	0xff, 0xf6, 0xfc, 0x11, 0xf4, 0xf1, 0x0c, 0x0a, 0xfa, 0x0f, 0x08, 0x05, 
	0xfe, 0xf8, 0xff, 0xf0, 0x06, 0xf5, 0xfc, 0xef, 0xfa, 0x0c, 0xfb, 0x0f, 
	0xfb, 0xfc, 0xff, 0xf7, 0xfa, 0xfe, 0xf9, 0xef, 0x11, 0xf8, 0xfa, 0x03, 
	0xf7, 0x05, 0xfd, 0xfc, 0xf5, 0x11, 0x04, 0xfe, 0xfe, 0x01, 0xf5, 0xf6, 
	0x0e, 0xfc, 0xfe, 0xff, 0x11, 0xf2, 0xf9, 0xfd, 0x11, 0x02, 0xf3, 0x02, 
	0xfb, 0x0b, 0xf0, 0xf3, 0x0a, 0x04, 0xf8, 0xfb, 0x10, 0x08, 0xf1, 0xff, 
	0x00, 0xfb, 0x08, 0x06, 0x0c, 0x03, 0xef, 0x09, 0xf9, 0x0b, 0x11, 0x08, 
	0x00, 0x0b, 0x08, 0xfc, 0x08, 0x0a, 0x05, 0xfc, 0xfe, 0xf2, 0x04, 0xfb, 
	0xf6, 0xf9, 0x0c, 0xf2, 0x0f, 0xf7, 0x06, 0x08, 0xf6, 0x0a, 0xfa, 0xf7, 
	0xfe, 0xef, 0xfb, 0xf1, 0x07, 0x06, 0x0d, 0x0a, 0x07, 0x01, 0xfe, 0x0b, 
	0xf9, 0x11, 0xf2, 0xfa, 0x02, 0x0c, 0xf7, 0xf2, 0x11, 0xf7, 0xf7, 0x02, 
	0x01, 0x0f, 0x11, 0xf0, 0x0e, 0xfe, 0x04, 0x10, 0xf4, 0x11, 0x06, 0x01, 
	0x0f, 0x09, 0x10, 0xf6, 0x01, 0xf5, 0x00, 0xf6, 0xfe, 0x02, 0x0b, 0x04, 
	0x0f, 0x04, 0x0c, 0x0f, 0xf7, 0x02, 0x0e, 0x08, 0x0c, 0x02, 0xf1, 0x02, 
	0xf8, 0xfe, 0xf4, 0x09, 0xf7, 0x06, 0xf2, 0xfa, 0x09, 0x07, 0x00, 0x0b, 
	0x0d, 0x10, 0xf5, 0xfe, 0xf6, 0xf0, 0x02, 0x09, 0xf9, 0x01, 0x03, 0xff, 
	0xf4, 0xff, 0x0b, 0x0e, 0x11, 0xf7, 0x00, 0x05, 0xfb, 0x0b, 0xfa, 0x06, 
	0x0e, 0xf5, 0x03, 0x0c, 0xf8, 0xf0, 0x0f, 0x0c, 0xef, 0x01, 0xf1, 0x0c, 
	0xfe, 0x08, 0xf1, 0xf2, 0xfa, 0x09, 0xfd, 0xf5, 0xfe, 0xff, 0xf0, 0x0d, 
	0xfd, 0xff, 0x0d, 0xff, 0x01, 0xf9, 0x0b, 0x04, 0x09, 0xf0, 0xfc, 0xf9, 
	0x0e, 0x09, 0xf0, 0xf9, 0xff, 0xf4, 0xfb, 0x0e, 0xf0, 0x02, 0xf7, 0xf6, 
	0xfd, 0x03, 0xfe, 0xfc, 0xff, 0xf2, 0x01, 0xfe, 0xf7, 0x09, 0xfc, 0xfd, 
	0x01, 0x0e, 0x08, 0x03, 0x01, 0x0c, 0xf6, 0x01, 0x11, 0x0d, 0xfd, 0xf2, 
	0x11, 0xfc, 0x0b, 0x0a, 0x0f, 0xfc, 0x0f, 0xff, 0xfa, 0xf1, 0x04, 0xf3, 
	0xf5, 0xef, 0xfa, 0x07, 0x11, 0xf0, 0x0f, 0xfb, 0x04, 0x03, 0x0b, 0x0e, 
	0xf2, 0x05, 0xf2, 0xf2, 0x0c, 0x02, 0x0a, 0xf7, 0x0a, 0xf1, 0x10, 0x0f, 
	0x10, 0x06, 0xf5, 0x02, 0x0a, 0x0e, 0x05, 0xf0, 0xf8, 0xf6, 0xff, 0xf7, 
	0xf7, 0xf4, 0x09, 0x05, 0x0a, 0xf5, 0x0c, 0xf7, 0xfe, 0xf3, 0x03, 0xf8, 
	0xfc, 0x08, 0xff, 0x05, 0xf5, 0xf1, 0xf6, 0xff, 0xf6, 0x07, 0xf7, 0xf9, 
	0x03, 0x00, 0x01, 0xf3, 0xfb, 0x08, 0xf3, 0xf3, 0x0f, 0xf8, 0xf4, 0x09, 
	0x07, 0xf7, 0xf2, 0x0a, 0xf0, 0xf7, 0x0f, 0xff, 0xf9, 0x07, 0xf1, 0x0e, 
	0x05, 0x01, 0xf7, 0xf7, 0x03, 0x10, 0xfa, 0x04, 0x0b, 0x06, 0x10, 0x05, 
	0x11, 0xef, 0xf0, 0x0c, 0xf0, 0xfe, 0x08, 0xfa, 0xef, 0x09, 0x09, 0xfb, 
	0x07, 0xff, 0xf7, 0xff, 0xef, 0x01, 0xfe, 0xfa, 0xf3, 0x06, 0xf3, 0x05, 
	0x0f, 0x03, 0x0c, 0x05, 0xfa, 0xfa, 0x06, 0xff, 0x0f, 0x0a, 0x06, 0x04, 
	0xf3, 0x08, 0x07, 0xf6, 0xf9, 0x0a, 0xf4, 0x00, 0x0f, 0xf6, 0xfa, 0xf8, 
	0xfb, 0xf8, 0xf0, 0xf1, 0x0b, 0xf0, 0xfa, 0x04, 0xf9, 0x09, 0xf5, 0xf2, 
	0x00, 0xf1, 0x07, 0xfd, 0x07, 0x09, 0x07, 0x02, 0x05, 0x0a, 0x11, 0xf4, 
	0xf3, 0xf4, 0x06, 0x0c, 0xf0, 0x0b, 0x0a, 0x0c, 0x06, 0x08, 0xf0, 0xf5, 
	0x07, 0x02, 0xff, 0xf7, 0xf7, 0xfc, 0x02, 0xfb, 0xf5, 0x0f, 0xf4, 0x08, 
	0x0b, 0x0d, 0x10, 0xf2, 0xf8, 0x06, 0x0e, 0x0e, 0x11, 0xf0, 0x09, 0xf6, 
	0x04, 0x0a, 0x01, 0xf7, 0x04, 0x01, 0x10, 0xfd, 0x0a, 0xf2, 0xfb, 0x0e, 
	0xf3, 0x03, 0xf8, 0xff, 0x00, 0xfd, 0xf5, 0x0a, 0x00, 0xfa, 0x0e, 0xfd, 
	0xf4, 0xf8, 0xf7, 0x11, 0xff, 0x06, 0x0c, 0x05, 0xf5, 0xef, 0xf1, 0x05, 
	0xf8, 0xff, 0x0d, 0xf3, 0x0c, 0x06, 0x0f, 0x01, 0x03, 0xf2, 0xf8, 0x0f, 
	0xfb, 0x0c, 0xfa, 0xf5, 0xf0, 0x05, 0xf0, 0xfa, 0x00, 0xf0, 0x0d, 0x0a, 
	0xf9, 0xf8, 0x0f, 0xf8, 0x0e, 0x09, 0xf7, 0x00, 0xf2, 0x02, 0x08, 0xff, 
	0x0d, 0x09, 0x0f, 0xf2, 0x06, 0xfa, 0x0f, 0x0f, 0xf6, 0xfd, 0x0e, 0xf5, 
	0xf8, 0xef, 0xf9, 0xfb, 0x11, 0xf2, 0xf8, 0xf4, 0xfc, 0xf5, 0xf3, 0x0f, 
	0x0e, 0xfc, 0x0b, 0x0e, 0xf1, 0x09, 0xef, 0x0d, 0x00, 0xf1, 0x0b, 0xfc, 
	0x01, 0x07, 0x00, 0x01, 0x0a, 0x02, 0xf3, 0x08, 0xf7, 0xfb, 0x0f, 0x01, 
	0x0f, 0xf0, 0x03, 0x0c, 0xef, 0x09, 0xfc, 0x11, 0xf7, 0xef, 0xfe, 0xf4, 
	0xf9, 0xf7, 0xf0, 0xf9, 0xfd, 0x0f, 0x02, 0xf8, 0xf3, 0xef, 0x02, 0x07, 
	0xf7, 0xfd, 0xf2, 0x04, 0x02, 0xfd, 0xf2, 0xf0, 0x0f, 0x02, 0xf6, 0xfb, 
	0x05, 0x08, 0x01, 0xff, 0xf4, 0xf3, 0x06, 0xfc, 0x0a, 0xfd, 0xfe, 0x05, 
	0x08, 0xf8, 0x10, 0xf4, 0x06, 0x03, 0x03, 0xfb, 0xf4, 0x10, 0xf5, 0xf9, 
	0xf1, 0x02, 0x0c, 0xf8, 0x00, 0x03, 0xf5, 0x10, 0x02, 0xf9, 0x0d, 0xf9, 
	0x07, 0xf1, 0x03, 0x0d, 0x0c, 0xfc, 0xfb, 0x04, 0x02, 0xf1, 0x0b, 0x0b, 
	0x0d, 0xfa, 0xff, 0xf8, 0x08, 0xf9, 0xfb, 0x0d, 0x06, 0xf7, 0xf8, 0xff, 
	0x0b, 0xf1, 0x07, 0xef, 0x06, 0xf6, 0xf1, 0x0f, 0x0b, 0x00, 0xfd, 0x07, 
	0x05, 0x01, 0x06, 0x05, 0x05, 0xef, 0x05, 0x0d, 0x0f, 0xf5, 0x00, 0xfb, 
	0x03, 0x0b, 0xf9, 0xf2, 0xfd, 0xf6, 0xf8, 0xf3, 0x0f, 0xff, 0x00, 0xf2, 
	0x11, 0x04, 0xf9, 0xf0, 0xf6, 0x02, 0xef, 0x0b, 0xf7, 0x06, 0x06, 0xf4, 
	0xf2, 0x0b, 0x0f, 0xfb, 0x05, 0xff, 0xfd, 0x05, 0xf2, 0xf6, 0x09, 0x07, 
	0xfe, 0x0d, 0x00, 0xf7, 0x0b, 0xfd, 0x03, 0xff, 0x07, 0xf1, 0xfd, 0xf4, 
	0xf2, 0x07, 0xf5, 0xef, 0x0f, 0xf8, 0x05, 0x03, 0xf1, 0x05, 0x0d, 0x08, 
	0xfd, 0x0b, 0x0c, 0xf2, 0x0b, 0x01, 0xf8, 0xf4, 0xf8, 0xf1, 0x0a, 0xf8, 
	0x0c, 0xf0, 0x02, 0x08, 0xf7, 0x0d, 0xf3, 0xfd, 0x07, 0xfd, 0x00, 0x10, 
	0xf8, 0xf1, 0x0d, 0x0c, 0x10, 0xff, 0xfa, 0xf9, 0xf6, 0xff, 0x08, 0x0d, 
	0xf9, 0xfb, 0xf9, 0xf5, 0xf2, 0x0d, 0xfa, 0x11, 0x03, 0x06, 0xfd, 0xf8, 
	0x05, 0x0d, 0xef, 0x0b, 0x05, 0xf8, 0xf1, 0x01, 0xfc, 0xef, 0xf3, 0xfa, 
	0x10, 0xef, 0x00, 0x0b, 0x0e, 0x09, 0xef, 0x0a, 0xfa, 0xef, 0x00, 0x0b, 
	0xfe, 0x0b, 0x06, 0xf4, 0x0b, 0xfa, 0x07, 0x0c, 0x0a, 0xf2, 0xf3, 0xfc, 
	0x00, 0xf5, 0xf1, 0xfe, 0xff, 0x10, 0xef, 0xf0, 0xfd, 0xfc, 0x01, 0x0d, 
	0x0b, 0x07, 0xfc, 0x0d, 0xfd, 0x08, 0xf1, 0x07, 0x04, 0x0b, 0xfe, 0xf3, 
	0x0f, 0x04, 0x01, 0x02, 0xfc, 0xf2, 0xf0, 0x11, 0xfe, 0x09, 0xf2, 0x05, 
	0xf2, 0x0c, 0xf3, 0xf3, 0xfa, 0xf1, 0x0d, 0x0c, 0xf7, 0x02, 0xfd, 0xf1, 
	0xf2, 0xf6, 0xf8, 0x0c, 0x0b, 0x07, 0xf4, 0x0b, 0x09, 0xf1, 0xfb, 0x05, 
	0x0b, 0x0e, 0xf7, 0xfd, 0x00, 0x04, 0x10, 0xf8, 0xf7, 0xf5, 0xff, 0xfc, 
	0x10, 0xff, 0x04, 0x09, 0xf3, 0x04, 0x06, 0x04, 0xef, 0x01, 0xf6, 0xfb, 
	0x01, 0xef, 0xf1, 0xfb, 0x07, 0xf1, 0xf4, 0xf6, 0x03, 0x07, 0x07, 0xfa, 
	0x05, 0x0f, 0xf6, 0xf8, 0xf4, 0x0d, 0x06, 0x0f, 0xfe, 0xf0, 0xff, 0x09, 
	0xf8, 0xf2, 0x0c, 0xfc, 0xf2, 0xf8, 0xf4, 0xf3, 0xff, 0xf4, 0xef, 0x02, 
	0xfd, 0xf8, 0xf3, 0xf0, 0x01, 0xf9, 0x02, 0x03, 0x0f, 0xf1, 0xf5, 0x03, 
	0xfa, 0x0e, 0xfd, 0x07, 0xf2, 0xf9, 0xfa, 0xf4, 0x0f, 0x10, 0x09, 0x0b, 
	0xf5, 0xff, 0x0a, 0xfa, 0x03, 0xf3, 0xfa, 0xfe, 0xf8, 0xf9, 0x11, 0x0f, 
	0xf9, 0x0e, 0x0a, 0xf9, 0xfd, 0x0e, 0xf9, 0x10, 0xf6, 0xf8, 0x08, 0xf8, 
	0xf2, 0xfe, 0xfc, 0xf2, 0xfc, 0x0e, 0x0e, 0x02, 0x03, 0x09, 0x07, 0xf9, 
	0xfd, 0x0b, 0xfe, 0x01, 0x10, 0x09, 0xfd, 0xfe, 0xf0, 0x04, 0x03, 0x0b, 
	0x08, 0xf3, 0xff, 0xf3, 0x04, 0xf4, 0xfe, 0xfd, 0x11, 0x0b, 0xf2, 0x02, 
	0x0f, 0x09, 0xf2, 0x09, 0xff, 0x08, 0xf3, 0x10, 0x09, 0x09, 0xf3, 0xfd, 
	0xff, 0xf7, 0xf9, 0x07, 0x0f, 0xf0, 0x11, 0x00, 0xf7, 0xfb, 0xf1, 0x01, 
	0xf1, 0xff, 0x11, 0x02, 0xf9, 0xf4, 0x04, 0x05, 0xff, 0x0d, 0x0f, 0x0e, 
	0x01, 0xf0, 0xef, 0x05, 0xf7, 0xf2, 0xf7, 0x09, 0xf1, 0xf4, 0x00, 0x09, 
	0xf5, 0xf7, 0x0e, 0xfa, 0xf6, 0x0d, 0x0f, 0xf3, 0x06, 0xff, 0x0e, 0xff, 
	0x03, 0x0d, 0xf5, 0x00, 0x02, 0x07, 0x07, 0x0b, 0x01, 0x11, 0x05, 0x01, 
	0xfc, 0xf4, 0xf9, 0x10, 0xfa, 0x0c, 0x01, 0xfc, 0xfc, 0xf4, 0xf3, 0x06, 
	0x01, 0xff, 0x09, 0x04, 0x0e, 0x0e, 0x0d, 0xf0, 0x0a, 0x0b, 0xf0, 0x0f, 
	0x0a, 0xf4, 0x10, 0x01, 0xf3, 0xf5, 0xf9, 0xf4, 0x01, 0xf3, 0xf8, 0xfe, 
	0xf7, 0xf0, 0x0c, 0x09, 0x0a, 0x00, 0x11, 0x10, 0x0e, 0x0b, 0xf0, 0xef, 
	0xf1, 0x0c, 0xf0, 0x08, 0xfd, 0xf4, 0xfb, 0xff, 0x0b, 0xf2, 0x02, 0x0f, 
	0xf8, 0xff, 0xff, 0x0e, 0xf3, 0x07, 0xfa, 0x0a, 0x10, 0x0d, 0x08, 0xfe, 
	0x06, 0xfb, 0xf4, 0x04, 0xfd, 0xf9, 0xef, 0x07, 0x09, 0xfc, 0xf8, 0xf7, 
	0xfb, 0xef, 0x01, 0x0d, 0x00, 0x02, 0xf2, 0xf7, 0xf4, 0xf7, 0x06, 0xf1, 
	0xff, 0xf1, 0x00, 0xf7, 0xfa, 0x11, 0x0a, 0x0e, 0xfa, 0xf2, 0x07, 0xf5, 
	0xf1, 0xf4, 0x02, 0xfc, 0x02, 0x0b, 0x01, 0x01, 0x0f, 0x03, 0x05, 0xf5, 
	0xf3, 0xf0, 0xf2, 0x00, 0xf1, 0x09, 0xfb, 0xf0, 0x09, 0xf4, 0x07, 0xfd, 
	0x09, 0xfc, 0xfa, 0x10, 0x08, 0xfb, 0xf9, 0x0a, 0xf9, 0x01, 0x0b, 0xfd, 
	0x0f, 0xfa, 0x09, 0x0d, 0x10, 0x07, 0xf8, 0x08, 0xff, 0x0b, 0x07, 0x0a, 
	0xf0, 0xf5, 0xf2, 0x02, 0x00, 0xf1, 0xfe, 0xf6, 0xfe, 0x10, 0xf8, 0xfb, 
	0xf1, 0xf9, 0x0e, 0xf1, 0x00, 0x03, 0xfb, 0xfb, 0xf9, 0x0a, 0x0d, 0x02, 
	0xf8, 0x04, 0xf6, 0x0b, 0xf2, 0x01, 0xfc, 0xf7, 0x0f, 0x0b, 0xf2, 0xf9, 
	0xfd, 0x0b, 0x02, 0xf2, 0x0b, 0xf4, 0xef, 0xef, 0xfd, 0x0a, 0xf8, 0x00, 
	0x09, 0xf2, 0xfb, 0x00, 0x11, 0x09, 0xfb, 0x05, 0x01, 0x09, 0xfd, 0x10, 
	0xf5, 0xfe, 0xff, 0xf4, 0xf9, 0x10, 0x0a, 0x07, 0xf5, 0x11, 0x11, 0xf9, 
	0xfd, 0x07, 0xfb, 0xfa, 0x0a, 0xf7, 0x11, 0xfe, 0xf2, 0xf9, 0xfd, 0xf9, 
	0xf2, 0xfd, 0xf4, 0x0a, 0x0a, 0xfd, 0xff, 0x11, 0x0a, 0x0c, 0xfe, 0x0c, 
	0xf2, 0x0f, 0x08, 0xf9, 0xfa, 0xf5, 0x11, 0x10, 0x05, 0x0e, 0x0a, 0x03, 
	0xf7, 0x11, 0xf6, 0xf1, 0xfd, 0x0f, 0x07, 0x09, 0xf4, 0x01, 0x01, 0xfe, 
	0xf2, 0x10, 0x0d, 0x03, 0xfc, 0xf3, 0xfe, 0x0e, 0x03, 0xfd, 0x01, 0x05, 
	0x0e, 0x09, 0x06, 0xf1, 0x04, 0x10, 0xf6, 0x08, 0x08, 0xfe, 0xf5, 0xfc, 
	0xf1, 0xf5, 0x11, 0x07, 0xfc, 0xff, 0xf3, 0x0b, 0x02, 0x00, 0xfa, 0xf2, 
	0x09, 0x09, 0x02, 0xfc, 0xf4, 0x07, 0xfb, 0x06, 0xfc, 0x0b, 0x09, 0x02, 
	0x03, 0x0e, 0x05, 0x01, 0xfb, 0x06, 0xf0, 0xfc, 0x0d, 0xf8, 0xf7, 0x09, 
	0x0f, 0x03, 0x06, 0xfd, 0x07, 0xf6, 0xf7, 0x0b, 0x0e, 0xf7, 0x0a, 0x03, 
	0x0a, 0x10, 0x02, 0xef, 0xf2, 0xf6, 0x01, 0x0d, 0xf6, 0x08, 0x09, 0xfb, 
	0xf1, 0xf3, 0x09, 0x0e, 0xff, 0xf1, 0xfa, 0x0c, 0xf9, 0xfe, 0x0f, 0x02, 
	0xf8, 0xf7, 0xff, 0xfc, 0x10, 0x05, 0xfa, 0x0f, 0x11, 0x0d, 0x01, 0xf8, 
	0x0a, 0xfe, 0xf2, 0x0f, 0x0a, 0x04, 0x03, 0xfb, 0xff, 0xfe, 0x0e, 0x08, 
	0x11, 0x08, 0x10, 0x00, 0x04, 0x10, 0xf2, 0xfa, 0xf3, 0xfa, 0x0b, 0x03, 
	0x05, 0x0a, 0x0d, 0xff, 0xf0, 0x0c, 0xf6, 0x01, 0x0d, 0x02, 0xf2, 0xfa, 
	0x06, 0xf3, 0x04, 0x0f, 0xf6, 0xf8, 0x0b, 0x0d, 0x09, 0xf6, 0x04, 0x00, 
	0x0f, 0xfd, 0x04, 0xf3, 0x00, 0x05, 0xf4, 0x00, 0x04, 0xf9, 0xfd, 0x01, 
	0xf9, 0xf7, 0xfd, 0xf0, 0xf1, 0xff, 0xfb, 0xfc, 0x11, 0x05, 0xfa, 0x09, 
	0xf5, 0x0f, 0x00, 0x0a, 0x09, 0xf7, 0xf4, 0xfd, 0xf7, 0xf0, 0xfc, 0xf1, 
	0x0e, 0xfe, 0x03, 0xf0, 0x05, 0xff, 0x0f, 0xf2, 0x07, 0x0a, 0x02, 0xf6, 
	0x05, 0x00, 0x04, 0xfa, 0xf5, 0x0b, 0x04, 0x06, 0x00, 0x0b, 0x02, 0x04, 
	0xf7, 0xf0, 0x00, 0x00, 0x03, 0xfb, 0xf8, 0xfd, 0xf0, 0xf7, 0xfa, 0x05, 
	0x0b, 0xf5, 0xf8, 0x03, 0x06, 0x08, 0xf1, 0x00, 0x10, 0x04, 0x0f, 0xfb, 
	0x07, 0x0c, 0x06, 0x0e, 0x05, 0x07, 0xfe, 0x01, 0xf2, 0xf0, 0xfe, 0xf3, 
	0xf3, 0x06, 0x0c, 0x03, 0x00, 0xef, 0xf3, 0xf7, 0x02, 0x05, 0x0e, 0x01, 
	0x0f, 0xf8, 0xfc, 0x0e, 0x07, 0x05, 0xf0, 0xfb, 0xfe, 0xfb, 0xf4, 0xf7, 
	0xfa, 0xff, 0x04, 0x04, 0x07, 0xfe, 0x0a, 0xfd, 0x0b, 0xf3, 0xf1, 0x0c, 
	0x09, 0x0b, 0x0c, 0xf6, 0xf6, 0x00, 0x05, 0xfa, 0xfa, 0xf6, 0x04, 0x04, 
	0x0a, 0x05, 0xfe, 0x10, 0x0f, 0x05, 0xfe, 0x00, 0xf4, 0xf7, 0xf6, 0xfc, 
	0x0d, 0x0a, 0x07, 0x07, 0x0b, 0x00, 0xf8, 0xff, 0xfb, 0x11, 0x04, 0x08, 
	0x04, 0xf0, 0x03, 0x03, 0xf6, 0xf8, 0x09, 0xf1, 0x02, 0x10, 0x02, 0x06, 
	0xfc, 0xf1, 0x08, 0xfb, 0xf0, 0x08, 0x02, 0xf4, 0x01, 0x0c, 0x0a, 0x10, 
	0xf3, 0x04, 0x04, 0xfb, 0x0d, 0xfa, 0xff, 0xfa, 0xf1, 0x07, 0x05, 0xef, 
	0x08, 0xf4, 0x05, 0xf7, 0x0f, 0x06, 0x06, 0xfb, 0x0c, 0x0b, 0x10, 0x0a, 
	0xef, 0xef, 0xf0, 0x0a, 0x11, 0xfd, 0xef, 0x01, 0xf5, 0xfe, 0xf4, 0x0a, 
	0x0c, 0x05, 0xf9, 0x05, 0xf4, 0xf4, 0x0a, 0x04, 0x09, 0xf9, 0x03, 0x09, 
	0xf0, 0x07, 0xf7, 0xf7, 0xfa, 0xfa, 0x00, 0x0c, 0xfd, 0xf2, 0x0a, 0x06, 
	0x02, 0xf7, 0x00, 0x03, 0x02, 0xf3, 0xf2, 0xfd, 0xfc, 0x02, 0x0d, 0x01, 
	0x02, 0x03, 0x0b, 0xf2, 0x10, 0x08, 0xf9, 0xfc, 0x02, 0xf7, 0xf4, 0x07, 
	0xf7, 0x05, 0xf7, 0x09, 0xf9, 0xfe, 0xfd, 0x0e, 0xf5, 0xfa, 0x03, 0x0d, 
	0x01, 0x0a, 0x03, 0x09, 0x08, 0xf9, 0x05, 0xf0, 0xfb, 0x0f, 0xf3, 0x0a, 
	0xf2, 0x0f, 0xff, 0xf6, 0xf2, 0x10, 0x00, 0xf2, 0x04, 0xf9, 0xf2, 0x0d, 
	0x10, 0x0e, 0xf8, 0xf6, 0x0c, 0x05, 0x0d, 0xf2, 0xfa, 0x11, 0xf0, 0x04, 
	0xf2, 0x08, 0x0c, 0x0b, 0x0f, 0xf6, 0xf6, 0x04, 0xf6, 0x0d, 0x03, 0xfd, 
	0xf2, 0x04, 0xf8, 0x08, 0xf6, 0x03, 0x0c, 0x0a, 0xfc, 0x0e, 0x05, 0x0d, 
	0x09, 0xf9, 0xf3, 0x0c, 0x0b, 0xf1, 0xf6, 0xf3, 0x08, 0xf1, 0xf4, 0xf5, 
	0xfd, 0x00, 0xf3, 0xff, 0x04, 0x08, 0xff, 0x0a, 0xf0, 0x06, 0x08, 0x03, 
	0xf2, 0xf9, 0xf4, 0xf9, 0xf5, 0xfa, 0xf6, 0x09, 0xf3, 0x0b, 0x02, 0xf5, 
	0x0c, 0x0d, 0x0a, 0x07, 0xff, 0x06, 0x02, 0x02, 0x10, 0x0a, 0x0d, 0x0c, 
	0x08, 0xf5, 0xf3, 0x04, 0xf1, 0x03, 0xf6, 0x05, 0xf7, 0xef, 0xf8, 0xf7, 
	0x10, 0x0c, 0xf4, 0x07, 0x00, 0x0d, 0xff, 0x0a, 0x11, 0x0a, 0x0b, 0xf7, 
	0x02, 0x03, 0x07, 0x07, 0xf7, 0xf1, 0x0e, 0x02, 0xf5, 0x07, 0xf4, 0x01, 
	0xf3, 0x11, 0x09, 0x11, 0xfd, 0xf0, 0xfa, 0x00, 0xef, 0x03, 0x04, 0x0d, 
	0xfe, 0xf8, 0x0e, 0x0a, 0x03, 0x0c, 0x0e, 0xf3, 0xef, 0xf7, 0xf2, 0xf7, 
	0xf2, 0xfb, 0xf6, 0xff, 0x0e, 0x0e, 0xf3, 0xfa, 0x06, 0xf7, 0x07, 0x10, 
	0xf8, 0xf5, 0xfa, 0xfb, 0x06, 0xf4, 0x02, 0xf7, 0x0a, 0xf1, 0xf4, 0xfe, 
	0x0f, 0xef, 0x0e, 0x10, 0xf0, 0x0c, 0x0b, 0xf0, 0xfd, 0x0c, 0x0d, 0x07, 
	0xff, 0xf0, 0xf5, 0xfe, 0xf3, 0x0b, 0xff, 0x07, 0xfb, 0x0b, 0x06, 0x08, 
	0x01, 0xf5, 0x05, 0xef, 0xfa, 0x00, 0x09, 0xfa, 0x05, 0x01, 0x05, 0xfa, 
	0x11, 0x01, 0xfb, 0xf8, 0xfe, 0x07, 0x05, 0xf8, 0x0e, 0x0b, 0x0e, 0xfb, 
	0xf5, 0x05, 0xf8, 0xfa, 0xfd, 0x08, 0x03, 0xf5, 0x0a, 0x06, 0x0d, 0x02, 
	0xf8, 0x00, 0xfe, 0xf0, 0xf8, 0x06, 0xf0, 0x10, 0x0d, 0xfb, 0x04, 0x10, 
	0x02, 0x04, 0x03, 0xf0, 0xf5, 0xfa, 0xfc, 0xf6, 0xf8, 0x09, 0xf8, 0xf0, 
	0x0a, 0xf2, 0xff, 0x05, 0xf8, 0xf5, 0x0f, 0x10, 0xfc, 0x02, 0xf5, 0x04, 
	0x10, 0xf3, 0xf3, 0x0b, 0xf6, 0xf9, 0xfe, 0x01, 0x0f, 0x10, 0xf2, 0xff, 
	0xfd, 0x0f, 0x0d, 0xfa, 0x0e, 0xf7, 0x03, 0xf1, 0xf6, 0x07, 0xfe, 0x03, 
	0xf8, 0xf3, 0x08, 0xff, 0xf8, 0xff, 0x01, 0xfc, 0xf4, 0x0d, 0xf6, 0x07, 
	0xf8, 0x05, 0xf6, 0x05, 0x0e, 0xfe, 0xf4, 0x02, 0xf8, 0xfa, 0x0b, 0x04, 
	0xf0, 0x0b, 0xf9, 0x0f, 0xff, 0x00, 0x02, 0x02, 0x03, 0xfc, 0x0c, 0x0d, 
	0x03, 0x10, 0xf9, 0x09, 0xf7, 0x00, 0x09, 0x06, 0x0f, 0x0c, 0x00, 0xfe, 
	0x0e, 0xf6, 0x0d, 0xf2, 0xf3, 0xf2, 0x02, 0xf6, 0x10, 0xf4, 0x03, 0x02, 
	0xf1, 0x10, 0xfa, 0x05, 0xf0, 0x0c, 0x01, 0x0d, 0x0f, 0x0b, 0x10, 0x01, 
	0xf8, 0xfb, 0xf7, 0x05, 0xf4, 0xfc, 0xf4, 0x06, 0xfe, 0x06, 0xfd, 0xfe, 
	0x0a, 0xf7, 0xfa, 0xfb, 0x07, 0xf6, 0xf2, 0x0f, 0x08, 0xf2, 0xfa, 0x09, 
	0xef, 0x01, 0xf2, 0x10, 0xfa, 0xf4, 0xf7, 0xf0, 0x00, 0xff, 0x0b, 0x0e, 
	0x0c, 0xf5, 0x01, 0x0f, 0x07, 0x01, 0xf0, 0x0f, 0x03, 0x09, 0x0c, 0xf9, 
	0x07, 0xf6, 0xfc, 0xfe, 0xf7, 0xfc, 0xf5, 0x0b, 0x00, 0x03, 0xfa, 0x02, 
	0x0d, 0x02, 0x07, 0xf9, 0x0c, 0xf2, 0x07, 0x11, 0xf4, 0xfa, 0xf1, 0x11, 
	0xf2, 0x01, 0x03, 0x02, 0x0c, 0x09, 0xf1, 0x0e, 0x07, 0xf6, 0xff, 0xfc, 
	0x03, 0x09, 0xfb, 0xfd, 0xfa, 0xfd, 0xf7, 0x08, 0x10, 0x07, 0x0c, 0x03, 
	0x0c, 0x02, 0x06, 0xff, 0x05, 0x06, 0x07, 0x0f, 0xff, 0x07, 0x0c, 0x08, 
	0xfd, 0xf8, 0x05, 0x0d, 0x04, 0xf0, 0xf3, 0xf8, 0xfd, 0x01, 0xff, 0xf1, 
	0x05, 0xfe, 0xf7, 0x06, 0xf9, 0xf1, 0x00, 0x00, 0xf3, 0x09, 0xff, 0xf7, 
	0xf8, 0x0c, 0xff, 0x06, 0x07, 0x05, 0x0f, 0x00, 0x0b, 0xfc, 0x07, 0x0f, 
	0xfc, 0x0a, 0x0c, 0x0f, 0xf4, 0xfa, 0x10, 0xf9, 0x09, 0xfe, 0x06, 0x01, 
	0x05, 0xf5, 0x01, 0xfb, 0xf3, 0xf2, 0xf4, 0x03, 0x01, 0x10, 0x0c, 0xf3, 
	0xf6, 0xfc, 0x0d, 0x04, 0xf2, 0x04, 0xf1, 0x00, 0x07, 0x0f, 0x04, 0xf7, 
	0xff, 0x03, 0x0f, 0x09, 0xfe, 0x0f, 0x01, 0xf8, 0xfc, 0xff, 0xf5, 0xf3, 
	0x0b, 0xf7, 0xf7, 0x02, 0xf5, 0x10, 0xf2, 0xfb, 0x07, 0xf0, 0xfa, 0xf3, 
	0xf1, 0x11, 0xf1, 0x03, 0xf1, 0xf4, 0x01, 0x02, 0xfd, 0xf5, 0xfe, 0xf8, 
	0x10, 0xfb, 0xfb, 0xfb, 0xfb, 0xf3, 0xf5, 0xef, 0xf4, 0x0d, 0xf9, 0x0a, 
	0x06, 0x06, 0x05, 0x08, 0x07, 0xfa, 0xf0, 0x11, 0xfe, 0x09, 0x01, 0xfe, 
	0x0e, 0xfc, 0x02, 0x04, 0xf3, 0x06, 0x02, 0xff, 0x0f, 0x0e, 0x03, 0x0d, 
	0xf6, 0x00, 0x0b, 0x00, 0x11, 0x0c, 0xf5, 0x02, 0xf3, 0xfd, 0xf7, 0x0c, 
	0xfe, 0x0d, 0xf3, 0x00, 0xfa, 0xfa, 0x00, 0xef, 0xf8, 0x08, 0x0d, 0x0e, 
	0xf1, 0x09, 0x00, 0x06, 0x10, 0xfb, 0xfe, 0xef, 0x0a, 0xf6, 0x05, 0xf9, 
	0x09, 0x06, 0x0c, 0xfe, 0x0c, 0xff, 0x0b, 0x05, 0x0e, 0x03, 0x07, 0xf4, 
	0x03, 0xf1, 0xf1, 0xf6, 0xf7, 0xf9, 0xf0, 0xfa, 0x0c, 0x02, 0x0b, 0x07, 
	0x0d, 0x0a, 0xf1, 0xfd, 0xfa, 0xf3, 0xf7, 0xff, 0xfb, 0x0b, 0xfa, 0x03, 
	0xf2, 0x0b, 0xfd, 0x08, 0xf3, 0x0c, 0x06, 0xf7, 0xff, 0x0e, 0xfc, 0xf2, 
	0xf5, 0x0f, 0xff, 0x00, 0x07, 0x00, 0xff, 0xff, 0x00, 0x0e, 0x07, 0x0b, 
	0x01, 0x0e, 0x0d, 0xf0, 0xfe, 0x02, 0xf9, 0x03, 0xfc, 0x04, 0x04, 0xf8, 
	0xf3, 0x07, 0x08, 0x0b, 0xfd, 0xf6, 0xfd, 0x05, 0x0c, 0x03, 0x08, 0xf6, 
	0x04, 0xfb, 0xf7, 0x05, 0xf8, 0xef, 0x09, 0xf5, 0xfc, 0x0e, 0xf2, 0x11, 
	0xfc, 0xfb, 0xff, 0x04, 0x07, 0xfd, 0xf6, 0x04, 0xf4, 0xf0, 0x11, 0xfc, 
	0xf9, 0x09, 0x06, 0x02, 0x02, 0x11, 0x00, 0x06, 0x05, 0x05, 0x01, 0x05, 
	0xfc, 0x0a, 0x04, 0x07, 0xf9, 0xfa, 0xf5, 0x0b, 0x0a, 0x09, 0xfb, 0xfc, 
	0x04, 0xfe, 0x0c, 0xfa, 0xfa, 0xfe, 0xfd, 0x0e, 0x0e, 0xf0, 0x00, 0x01, 
	0x08, 0xfb, 0x0a, 0xfd, 0xf3, 0xf0, 0x04, 0xf9, 0xf8, 0x01, 0x0a, 0xf4, 
	0xfa, 0xfb, 0x07, 0x00, 0xf0, 0xf8, 0xff, 0xf5, 0x11, 0xf9, 0x03, 0xf1, 
	0xfb, 0x10, 0x07, 0x06, 0x0f, 0x09, 0x0c, 0x0a, 0xff, 0x10, 0xff, 0x05, 
	0x0d, 0xfe, 0x02, 0xf6, 0x06, 0xf8, 0x04, 0xfe, 0x0c, 0x0a, 0xff, 0x0a, 
	0x03, 0xf8, 0xef, 0xfd, 0xf1, 0xfe, 0xf0, 0xf8, 0xf4, 0xf0, 0x0c, 0xfd, 
	0x10, 0x0a, 0xfe, 0x08, 0xf0, 0x0c, 0x05, 0x0a, 0x06, 0xfd, 0x03, 0x0c, 
	0xf4, 0x09, 0xff, 0xf2, 0x00, 0x08, 0x02, 0xf8, 0xf8, 0x07, 0x0b, 0xfa, 
	0xff, 0xf5, 0x0e, 0x11, 0x0a, 0x08, 0xef, 0xf5, 0x0a, 0x00, 0xf8, 0x10, 
	0xf1, 0x07, 0xf0, 0x0d, 0xf3, 0xfc, 0xf5, 0xfc, 0xf1, 0xf6, 0x02, 0x0f, 
	0x0b, 0x06, 0xfe, 0x08, 0x07, 0xf2, 0x07, 0xfb, 0x06, 0x00, 0xfe, 0x0f, 
	0xf1, 0x0a, 0x0b, 0xef, 0xf1, 0x02, 0xf7, 0xfd, 0x01, 0xf0, 0x0a, 0x03, 
	0x05, 0xf8, 0xfe, 0xf5, 0x01, 0x0f, 0xfb, 0xf3, 0xfe, 0x0a, 0x07, 0xfa, 
	0x08, 0xf3, 0xfe, 0xfa, 0xf9, 0xfd, 0x0b, 0x03, 0xf4, 0xf8, 0x09, 0x05, 
	0x01, 0x10, 0x0b, 0xfb, 0xf5, 0x0b, 0x09, 0xfe, 0xff, 0xfa, 0xf0, 0x00, 
	0x10, 0x08, 0x0f, 0xf1, 0xf6, 0x02, 0xf4, 0xfd, 0xfe, 0x03, 0x0d, 0xf3, 
	0xf6, 0xff, 0x05, 0xf5, 0xfa, 0xfb, 0xf4, 0xf7, 0x03, 0xfa, 0x02, 0xf7, 
	0x02, 0x0f, 0xf6, 0xef, 0x07, 0x09, 0x0f, 0xf8, 0x0d, 0x02, 0x09, 0xf5, 
	0xf0, 0xfa, 0xff, 0x01, 0x0f, 0xfa, 0xef, 0xf1, 0x00, 0x04, 0xf0, 0xfb, 
	0xef, 0xef, 0x08, 0x0b, 0x0e, 0x09, 0x11, 0xfc, 0xfb, 0xf0, 0xf5, 0x0f, 
	0xef, 0xfa, 0xf3, 0x05, 0x0a, 0xfe, 0xf7, 0xf4, 0xf0, 0xf2, 0xf2, 0x08, 
	0x08, 0xfd, 0xf2, 0x09, 0xf5, 0xf1, 0x02, 0xf8, 0xf0, 0x02, 0x07, 0x06, 
	0x05, 0x0a, 0x0d, 0xf8, 0x0d, 0xfb, 0x11, 0x01, 0xf3, 0xfd, 0x06, 0xf1, 
	0x04, 0xf8, 0x01, 0xfb, 0x08, 0xf0, 0xfc, 0x03, 0xf5, 0x10, 0xf1, 0xfe, 
	0xf3, 0xfb, 0x01, 0xf7, 0x0f, 0xff, 0xf1, 0x01, 0x0f, 0x0d, 0x0b, 0xf9, 
	0x06, 0x0e, 0xff, 0x08, 0xf2, 0x0c, 0xfc, 0x0d, 0xf2, 0x0e, 0xf0, 0x06, 
	0x10, 0x11, 0xff, 0x0e, 0xf1, 0xf1, 0x03, 0x07, 0x10, 0x05, 0x01, 0x09, 
	0x08, 0xf8, 0x03, 0xf3, 0xf9, 0xf9, 0xf8, 0xf8, 0x04, 0xf1, 0x05, 0xf1, 
	0x02, 0x0f, 0x02, 0xf1, 0xfd, 0xf0, 0xf0, 0xfa, 0x10, 0xf0, 0x02, 0x07, 
	0x0b, 0xfc, 0xf3, 0x0f, 0xfd, 0xfe, 0xf1, 0x07, 0xf1, 0xf5, 0xf6, 0x07, 
	0xfb, 0x02, 0xfc, 0x06, 0x01, 0x11, 0xf8, 0x0c, 0xfb, 0x04, 0xf6, 0x10, 
	0xf8, 0x08, 0x11, 0xf0, 0xf8, 0xf1, 0x06, 0xfd, 0xfa, 0x05, 0xf0, 0xfe, 
	0x07, 0x01, 0xf3, 0x0a, 0x07, 0x02, 0x0e, 0x09, 0x06, 0xf3, 0x07, 0xf1, 
	0xef, 0xf5, 0x0d, 0x0f, 0x08, 0xf6, 0x0c, 0x09, 0x0a, 0xf2, 0x0c, 0xf1, 
	0xf5, 0xf8, 0xf0, 0x03, 0xf0, 0xfe, 0xfa, 0xff, 0xf9, 0xf0, 0xf3, 0xf4, 
	0xfe, 0xf4, 0x0d, 0xf9, 0x03, 0xfb, 0xf6, 0xf5, 0xf9, 0x02, 0x11, 0xfe, 
	0x0a, 0xfa, 0xfb, 0x0e, 0xef, 0xf7, 0x03, 0xfb, 0xef, 0x0f, 0x10, 0xfd, 
	0x04, 0x10, 0x0c, 0xf1, 0x01, 0x0d, 0x0d, 0x00, 0x08, 0xfd, 0xf1, 0xf4, 
	0xf7, 0x09, 0x02, 0x0c, 0x02, 0x02, 0xf4, 0xfe, 0x0c, 0x0d, 0xf8, 0x00, 
	0xf3, 0x05, 0xf7, 0x10, 0xf9, 0x05, 0x02, 0x05, 0x10, 0xf3, 0xf3, 0xf9, 
	0xf5, 0xf4, 0xf8, 0x10, 0xf3, 0x08, 0x0d, 0xf7, 0xf6, 0x00, 0xff, 0x03, 
	0x02, 0xfe, 0xfd, 0xf3, 0xfb, 0x02, 0x0f, 0x08, 0x02, 0xf0, 0x0e, 0xf0, 
	0xff, 0x00, 0xf8, 0xf4, 0xf8, 0xf7, 0xf6, 0x08, 0x0c, 0xf9, 0xfb, 0xf7, 
	0xfc, 0x07, 0x02, 0x10, 0x0b, 0xf0, 0xf2, 0x02, 0x01, 0x03, 0x10, 0x0c, 
	0x06, 0xf9, 0xef, 0x01, 0xfb, 0xff, 0xf6, 0xfc, 0x09, 0x00, 0x0f, 0x08, 
	0xf5, 0x01, 0x0c, 0xf2, 0x11, 0xf8, 0x04, 0x0a, 0x08, 0x0f, 0x01, 0xfe, 
	0x01, 0x09, 0x05, 0x07, 0x08, 0xf0, 0x02, 0x0d, 0x0a, 0x01, 0x01, 0x04, 
	0xf7, 0x07, 0xf4, 0x08, 0xf8, 0xf8, 0x07, 0x05, 0xf5, 0xf2, 0x0d, 0xf3, 
	0x05, 0x00, 0xf8, 0x0b, 0xf6, 0xf9, 0xf0, 0xfa, 0xfb, 0x04, 0x04, 0xf6, 
	0x10, 0x0e, 0x08, 0xfe, 0x0b, 0x03, 0xff, 0xf7, 0xf6, 0xfb, 0x0c, 0x08, 
	0xf5, 0xfd, 0xfd, 0xf1, 0xf4, 0x0d, 0x11, 0xf4, 0xfb, 0xfb, 0xfa, 0x03, 
	0x10, 0x03, 0x07, 0x0f, 0xfc, 0xf5, 0xf4, 0xfa, 0xf2, 0xf8, 0xfd, 0x11, 
	0x05, 0xf7, 0x0a, 0xf7, 0x04, 0x03, 0x0a, 0x03, 0xf5, 0xf7, 0xf0, 0x09, 
	0x04, 0x00, 0xfa, 0x06, 0xf8, 0x06, 0xf2, 0xfb, 0x05, 0x04, 0x09, 0x03, 
	0xf4, 0xf7, 0x04, 0xf7, 0x01, 0x0f, 0x0e, 0xf7, 0x04, 0xef, 0xf2, 0x09, 
	0xef, 0xff, 0x04, 0x0e, 0xf9, 0x03, 0xfb, 0xef, 0xf5, 0xf9, 0x0c, 0xff, 
	0xfb, 0x0d, 0xfe, 0xf7, 0x0d, 0xf9, 0xef, 0xf1, 0xfa, 0x01, 0x0e, 0x0e, 
	0x08, 0x07, 0xff, 0x03, 0x0a, 0x09, 0x06, 0xf5, 0x0c, 0x0e, 0xf7, 0xf1, 
	0x0d, 0xf9, 0x0a, 0xf0, 0xf7, 0x09, 0x04, 0x02, 0xfb, 0xf1, 0xfe, 0xf9, 
	0x07, 0x10, 0xf9, 0x0c, 0x04, 0x02, 0xf5, 0xfd, 0xfb, 0xf2, 0xfd, 0x0c, 
	0xf1, 0x0e, 0xf9, 0xfc, 0x11, 0x0f, 0x08, 0x00, 0x11, 0xfc, 0xf8, 0x0a, 
	0x05, 0xf9, 0xf3, 0xf2, 0x04, 0x0e, 0xfa, 0xf3, 0x05, 0xf5, 0xff, 0xf8, 
	0x08, 0xf5, 0x0f, 0xf4, 0x0f, 0x03, 0x0a, 0x03, 0x01, 0x06, 0x0e, 0xf0, 
	0xf4, 0x05, 0xf8, 0x03, 0xf6, 0xf4, 0xf2, 0xf2, 0xfd, 0x05, 0xfd, 0x01, 
	0xf8, 0xf7, 0xf7, 0xf8, 0x01, 0xfc, 0xfa, 0xef, 0xef, 0xfb, 0xf2, 0x0d, 
	0xf7, 0x02, 0x0a, 0x07, 0x0a, 0xf3, 0xf2, 0xf5, 0xf8, 0xff, 0x02, 0x09, 
	0xf0, 0xfa, 0xf2, 0x03, 0xf0, 0x09, 0x00, 0xfc, 0x06, 0xf7, 0xef, 0xf8, 
	0xf4, 0xf0, 0x0e, 0x00, 0x0c, 0xf7, 0xf4, 0x08, 0x10, 0x04, 0xf5, 0x0d, 
	0xef, 0x0c, 0x07, 0x0f, 0x08, 0x03, 0x04, 0x06, 0x0b, 0xfc, 0x01, 0xf5, 
	0xfd, 0x0c, 0xf0, 0x0e, 0x10, 0xef, 0xf5, 0x02, 0xf1, 0x0c, 0xf3, 0xf1, 
	0xf1, 0xf4, 0x0f, 0x07, 0x07, 0x06, 0x0d, 0xf7, 0xfe, 0x0a, 0xf0, 0x0b, 
	0x02, 0x0d, 0x07, 0xfd, 0x02, 0xef, 0xfb, 0x04, 0x06, 0x02, 0xfd, 0xf1, 
	0xfc, 0x0c, 0xfa, 0x07, 0x0a, 0x02, 0x08, 0xf2, 0x10, 0xf6, 0x05, 0x04, 
	0x0f, 0xf5, 0xfc, 0x05, 0x03, 0xf0, 0xf1, 0xfc, 0xf6, 0x09, 0x02, 0xf2, 
	0xf5, 0xfb, 0xf0, 0x02, 0x02, 0xf2, 0x07, 0x0a, 0x0d, 0xfa, 0xfb, 0x0c, 
	0x0c, 0x0d, 0x0b, 0xff, 0x01, 0xff, 0xfd, 0x05, 0xf9, 0xf0, 0x08, 0x00, 
	0x00, 0xfd, 0x07, 0x02, 0x03, 0x0d, 0xf5, 0xf2, 0x06, 0xfa, 0xfc, 0xf9, 
	0x07, 0x05, 0x0b, 0x09, 0x0b, 0x06, 0xfa, 0xf1, 0xf3, 0xf7, 0xf5, 0xf5, 
	0xf0, 0x0e, 0xff, 0x0b, 0x0b, 0x0d, 0xfd, 0xfe, 0xf0, 0xfc, 0xff, 0xf6, 
	0x02, 0x0a, 0xf3, 0x03, 0xef, 0x08, 0xf7, 0xfc, 0xf9, 0xf3, 0x09, 0x0f, 
	0xf7, 0x0a, 0x0b, 0xfb, 0x01, 0x11, 0xfd, 0x05, 0x02, 0x0b, 0x0c, 0xf8, 
	0xfd, 0x03, 0xfd, 0xf4, 0xff, 0x0e, 0x0d, 0xfa, 0x05, 0x02, 0xf9, 0x04, 
	0x0b, 0xf5, 0x0c, 0x0a, 0xf9, 0x04, 0x08, 0x0f, 0x04, 0x09, 0xf5, 0xff, 
	0x0c, 0x0e, 0x0a, 0xef, 0xf9, 0x0f, 0x0e, 0xf1, 0xf8, 0xf0, 0x05, 0xf4, 
	0x10, 0x07, 0x04, 0xf3, 0x0d, 0xfb, 0xfd, 0xf8, 0xfe, 0x0e, 0xf7, 0xfd, 
	0x01, 0xf0, 0xf5, 0x04, 0x0f, 0x09, 0xfa, 0x07, 0x10, 0x10, 0x0a, 0x06, 
	0x0b, 0x08, 0xf9, 0xff, 0x07, 0x06, 0xf1, 0x02, 0x07, 0xf2, 0x07, 0x09, 
	0xef, 0x11, 0xfd, 0x0b, 0xf4, 0xff, 0x02, 0x08, 0x05, 0x06, 0x02, 0xf1, 
	0xfe, 0x06, 0xfe, 0xf8, 0x04, 0xf5, 0xf4, 0x0a, 0x0e, 0xef, 0xf8, 0x00, 
	0xff, 0x0d, 0xef, 0xf8, 0x01, 0xf9, 0x03, 0x0c, 0xfc, 0xf2, 0xfa, 0x04, 
	0xf2, 0x03, 0x03, 0xfa, 0x00, 0x09, 0xfd, 0x04, 0x10, 0xf1, 0xf4, 0xfb, 
	0xfa, 0x03, 0x0f, 0xf9, 0x09, 0x07, 0x10, 0xf5, 0x0f, 0xf8, 0x00, 0xff, 
	0xff, 0xf1, 0x0f, 0x08, 0x11, 0x01, 0xf1, 0x08, 0xf7, 0x0b, 0x01, 0xf8, 
	0x0e, 0xfa, 0x0b, 0x00, 0x0f, 0xf6, 0x0f, 0xef, 0x0c, 0x0d, 0x09, 0x11, 
	0xf9, 0x0d, 0x01, 0xf2, 0x06, 0x01, 0xff, 0xfe, 0x0e, 0xfb, 0xff, 0x10, 
	0x09, 0xf4, 0xfa, 0xf9, 0x04, 0x05, 0xff, 0x05, 0x07, 0xfe, 0x0e, 0x02, 
	0xfe, 0x07, 0xfa, 0xf1, 0xf3, 0x0a, 0xfd, 0xfc, 0x06, 0xf8, 0xf8, 0x11, 
	0xf1, 0x04, 0x08, 0xf7, 0xff, 0xf3, 0xff, 0xf0, 0xf4, 0xf7, 0xfe, 0xef, 
	0xf9, 0x06, 0x08, 0x00, 0xf1, 0xf0, 0xf0, 0x0e, 0x06, 0xf8, 0x04, 0xfc, 
	0xf1, 0x0e, 0x06, 0x08, 0xf6, 0xf9, 0xf6, 0x0e, 0x07, 0xfb, 0xf8, 0x0e, 
	0x04, 0x10, 0x0d, 0x00, 0xf3, 0xf3, 0xf9, 0xf6, 0xfc, 0x04, 0x09, 0xfc, 
	0xf2, 0x03, 0xf9, 0x10, 0xf0, 0xfe, 0x0d, 0xff, 0xef, 0xfb, 0x06, 0xf4, 
	0x03, 0xf7, 0x0b, 0xfd, 0x08, 0x01, 0xf3, 0xf4, 0x11, 0x0c, 0xfe, 0x02, 
	0xf1, 0x06, 0xf8, 0x0a, 0x07, 0xf5, 0x0e, 0x08, 0x0b, 0x02, 0xf2, 0x0d, 
	0xf1, 0x04, 0xf0, 0x00, 0xef, 0x06, 0xfc, 0x09, 0xf3, 0x0b, 0xf9, 0xfb, 
	0x0a, 0xfd, 0xf2, 0xf6, 0x02, 0x0d, 0xfa, 0xf3, 0xf7, 0xf1, 0xfe, 0x03, 
	0xf6, 0x08, 0x0b, 0xf9, 0x08, 0xf1, 0x01, 0x10, 0x10, 0xf9, 0xf0, 0xf4, 
	0xfa, 0x06, 0xef, 0x04, 0x00, 0xf2, 0x02, 0xf4, 0xf7, 0x00, 0xfa, 0xfc, 
	0xf4, 0x00, 0x05, 0x0c, 0xef, 0xfc, 0x09, 0x0f, 0xf2, 0xff, 0xfa, 0xfe, 
	0xfe, 0xf8, 0x00, 0xfe, 0x0b, 0x10, 0xf6, 0xfa, 0x05, 0xf3, 0x0c, 0xf0, 
	0xff, 0xf4, 0xf3, 0x0c, 0xfc, 0x02, 0xfd, 0x07, 0xfe, 0x07, 0xfe, 0xfc, 
	0x09, 0xf1, 0xff, 0xf3, 0x07, 0xf4, 0x06, 0x0f, 0x02, 0x0b, 0xf8, 0x06, 
	0x08, 0xff, 0xf1, 0x0b, 0xf8, 0xf5, 0xf1, 0xfd, 0x06, 0x0d, 0xfe, 0x0c, 
	0x0d, 0xfb, 0xfc, 0x04, 0x00, 0xf4, 0x07, 0xf6, 0x0e, 0xef, 0x01, 0xf8, 
	0xfb, 0xf2, 0xf6, 0x02, 0xfe, 0xf6, 0xf9, 0xf3, 0xf3, 0x0c, 0xfe, 0xf9, 
	0x05, 0xf7, 0x08, 0x07, 0xfe, 0xf4, 0xfe, 0x02, 0x00, 0xff, 0xfc, 0xff, 
	0x09, 0xf2, 0xf0, 0xf3, 0x05, 0xf2, 0x0d, 0xfa, 0xf2, 0x04, 0x04, 0xf3, 
	0x0b, 0x0f, 0x0f, 0x11, 0x02, 0xfb, 0x11, 0xf1, 0xf7, 0x10, 0x04, 0xfa, 
	0x0b, 0x0a, 0x06, 0x09, 0x08, 0xfa, 0xfe, 0x0e, 0xfb, 0x08, 0x06, 0xf4, 
	0x0f, 0xfd, 0xfd, 0xfd, 0x01, 0x01, 0xfb, 0x0d, 0x02, 0xfb, 0x09, 0xf3, 
	0x03, 0x0b, 0xf8, 0xf1, 0xf3, 0xf9, 0xf4, 0xf1, 0xf9, 0x0c, 0x09, 0xfd, 
	0xfa, 0xff, 0x03, 0x02, 0x0a, 0xff, 0xf5, 0xf2, 0xf3, 0x0f, 0x10, 0x07, 
	0xfa, 0x06, 0x07, 0xfb, 0xf9, 0xff, 0x08, 0x04, 0x01, 0x04, 0xfe, 0xf2, 
	0xfc, 0xf8, 0xfa, 0xfb, 0x02, 0x10, 0xf2, 0x09, 0x01, 0x0f, 0x0e, 0x08, 
	0x0c, 0x04, 0xfa, 0xfc, 0x0d, 0xf2, 0x01, 0xf3, 0xf7, 0x11, 0xf9, 0x03, 
	0xf1, 0x01, 0xf8, 0x07, 0x07, 0xf6, 0x04, 0xf9, 0xf7, 0xf0, 0xf9, 0x10, 
	0x03, 0xff, 0x04, 0x04, 0x05, 0x00, 0xef, 0xfa, 0x04, 0x04, 0x08, 0xf4, 
	0x08, 0x04, 0x06, 0xf6, 0xfd, 0xf4, 0xfe, 0xf9, 0x0b, 0xf4, 0x02, 0xfe, 
	0xf6, 0xf5, 0xf8, 0x0d, 0xfc, 0xf0, 0x07, 0x06, 0x10, 0x09, 0xfc, 0xf9, 
	0xf1, 0xf2, 0xf0, 0x04, 0x10, 0x03, 0xfb, 0x01, 0xf0, 0x08, 0x0a, 0xf1, 
	0x0c, 0x05, 0xf2, 0xf8, 0x0e, 0x06, 0xf7, 0xf3, 0x0a, 0xf2, 0xfe, 0x03, 
	0x03, 0xf8, 0xf5, 0x0a, 0xfd, 0xf3, 0xfb, 0x06, 0xf4, 0xfa, 0x11, 0xf8, 
	0xf7, 0xfa, 0xf4, 0xfd, 0x10, 0xfd, 0x0b, 0xfb, 0xf7, 0xf7, 0xf1, 0xf4, 
	0x01, 0x0e, 0xf4, 0xf7, 0x00, 0x02, 0x04, 0x0d, 0xf1, 0x0c, 0xf8, 0xfd, 
	0xf6, 0xf3, 0x04, 0xfc, 0x04, 0x06, 0xf2, 0x11, 0xfe, 0xf7, 0xfb, 0x04, 
	0xf8, 0xfa, 0x0c, 0xf7, 0xf4, 0x09, 0xf3, 0xf0, 0xfd, 0x0b, 0xfe, 0xf7, 
	0xf0, 0xfd, 0xf1, 0x0d, 0x08, 0xf2, 0x0c, 0xf5, 0x09, 0xfe, 0xf3, 0xf8, 
	0x0a, 0xf8, 0x01, 0x10, 0xfb, 0xf4, 0xf1, 0x05, 0x02, 0x0b, 0xf0, 0xff, 
	0x02, 0xfc, 0xf7, 0x00, 0x08, 0x05, 0x0c, 0xf4, 0xfe, 0x0b, 0x00, 0xfb, 
	0xf8, 0xf8, 0xf5, 0xf7, 0xfa, 0x01, 0x00, 0xf8, 0x0e, 0xf9, 0xfd, 0xf8, 
	0x00, 0xfa, 0xfe, 0xf3, 0x0d, 0x05, 0xf9, 0x09, 0x09, 0x10, 0xfc, 0x02, 
	0x08, 0x03, 0xfd, 0x03, 0xf6, 0xf5, 0x05, 0xf0, 0xf9, 0x00, 0xf2, 0xfa, 
	0xf5, 0xfe, 0xf3, 0x0e, 0x06, 0xf0, 0x08, 0x0b, 0x02, 0x0b, 0xfe, 0x0c, 
	0xff, 0xf4, 0x11, 0x0b, 0xfc, 0x10, 0x07, 0xfd, 0x05, 0xfa, 0xf4, 0xfe, 
	0xf3, 0x0b, 0xfc, 0x00, 0xf0, 0xfb, 0xf1, 0xfd, 0xfb, 0xfc, 0x0a, 0x08, 
	0xfd, 0x04, 0xf4, 0xf7, 0x0f, 0x09, 0x0b, 0x0c, 0xf0, 0x03, 0x01, 0x01, 
	0xf5, 0x06, 0x09, 0xfc, 0xf0, 0x0e, 0xfd, 0x00, 0xf3, 0xf5, 0xff, 0x0d, 
	0x02, 0x0e, 0xf4, 0xfe, 0xf8, 0xf0, 0x03, 0xf7, 0x0c, 0x07, 0xfb, 0x10, 
	0x04, 0x02, 0x0d, 0x00, 0x03, 0x0f, 0xf1, 0xff, 0xf5, 0xef, 0xf3, 0xfd, 
	0x05, 0x09, 0x0c, 0x05, 0xf9, 0xf1, 0x10, 0x0f, 0xf4, 0x05, 0x0c, 0x03, 
	0xf0, 0xef, 0xf8, 0x03, 0x06, 0xf0, 0x07, 0xf9, 0xf7, 0x01, 0x0f, 0xf4, 
	0x0a, 0x11, 0x04, 0xf6, 0x06, 0xff, 0xf7, 0xf6, 0x03, 0x0e, 0xef, 0xfb, 
	0x11, 0x10, 0xf6, 0xfb, 0x0d, 0xfe, 0xfb, 0x03, 0x03, 0x08, 0x09, 0xf5, 
	0x00, 0x09, 0x0c, 0x06, 0x02, 0x0d, 0xfe, 0xfa, 0x0f, 0xf8, 0xfd, 0xf0, 
	0x06, 0xf4, 0x00, 0x03, 0xf9, 0xf9, 0xf4, 0xfe, 0x0c, 0x0f, 0x09, 0x0c, 
	0x0a, 0xf4, 0x0d, 0x0b, 0xf5, 0xf7, 0xef, 0x01, 0xf6, 0x06, 0xf2, 0xff, 
	0x02, 0x05, 0xef, 0xf3, 0x0f, 0x06, 0x01, 0xf5, 0x08, 0x05, 0xff, 0xf3, 
	0x0b, 0x0c, 0x0f, 0x09, 0x07, 0xf9, 0xf5, 0x01, 0x0c, 0x00, 0x0f, 0x0d, 
	0x04, 0xf8, 0x11, 0xfd, 0xf0, 0x11, 0xf6, 0xf8, 0xf8, 0xef, 0xf1, 0x0c, 
	0xf9, 0xfa, 0xf2, 0x01, 0xef, 0xf9, 0xfb, 0xf2, 0x04, 0xf0, 0x05, 0xf6, 
	0xf1, 0xf5, 0x06, 0xfa, 0x0c, 0xf0, 0xf7, 0x0d, 0x0e, 0xf3, 0x0f, 0x0c, 
	0xf9, 0x03, 0xf2, 0xfa, 0xf1, 0x0a, 0xfc, 0xfa, 0xfe, 0xfd, 0x0b, 0x0e, 
	0x05, 0xfb, 0x0a, 0xf5, 0xfd, 0xf7, 0xf2, 0xfa, 0xf4, 0x0a, 0xf7, 0xf7, 
	0x10, 0xf6, 0xef, 0xfb, 0xf8, 0x02, 0x0b, 0x00, 0x0d, 0xfc, 0x01, 0xf6, 
	0xf9, 0x02, 0x0a, 0xf0, 0xf0, 0x00, 0xf6, 0x03, 0x01, 0x0c, 0xf6, 0xf8, 
	0x02, 0xf8, 0xfe, 0x10, 0x09, 0xfa, 0xf7, 0x05, 0x0f, 0x0a, 0xfd, 0xfa, 
	0xfd, 0xf0, 0xf7, 0x02, 0x0b, 0x09, 0xff, 0x08, 0x07, 0x03, 0xfc, 0xf7, 
	0xf6, 0xf3, 0x0c, 0xf7, 0x07, 0x07, 0x02, 0x0e, 0x0a, 0xfb, 0x0d, 0xf3, 
	0x10, 0x04, 0xf9, 0xef, 0x04, 0x09, 0xfe, 0x05, 0xf1, 0xf1, 0xf0, 0xf7, 
	0xf6, 0xfb, 0x0c, 0xf1, 0x03, 0xfd, 0xf2, 0x02, 0x10, 0x08, 0x10, 0xf4, 
	0xf9, 0xf8, 0x0b, 0xf0, 0x10, 0xf2, 0x08, 0x08, 0xf9, 0x10, 0xef, 0x0f, 
	0xff, 0xf4, 0x00, 0xf0, 0x04, 0xfa, 0xff, 0xfe, 0x01, 0x0c, 0xf2, 0xfb, 
	0xef, 0x05, 0xf4, 0x11, 0xfd, 0x01, 0x0f, 0x0e, 0xfb, 0x0b, 0x08, 0xf9, 
	0xfc, 0xfe, 0xf0, 0x07, 0xfd, 0x08, 0xff, 0x05, 0xf5, 0x0e, 0xf3, 0xf6, 
	0x07, 0x02, 0xf4, 0xf5, 0xf7, 0xf4, 0xff, 0x06, 0xfd, 0xf9, 0x06, 0xfb, 
	0xf9, 0x0d, 0xf2, 0x0e, 0x05, 0x09, 0x05, 0xfa, 0x0a, 0x03, 0xf4, 0xfe, 
	0x0b, 0x04, 0x0e, 0x0e, 0x0c, 0x0b, 0xf3, 0x04, 0x07, 0x02, 0xfe, 0x07, 
	0x03, 0x00, 0xf6, 0xf5, 0x08, 0xfd, 0xff, 0x09, 0xf7, 0xf8, 0xf6, 0xf4, 
	0x0e, 0x03, 0x05, 0x03, 0xf3, 0xfd, 0xfc, 0xf3, 0xfa, 0x06, 0xf5, 0x05, 
	0xfc, 0xf5, 0xf3, 0xfe, 0xf9, 0x00, 0xff, 0xfe, 0x02, 0xf4, 0xf8, 0x09, 
	0x05, 0x01, 0x0e, 0x03, 0xf6, 0xfb, 0xfb, 0x0a, 0xf9, 0x07, 0x08, 0x0f, 
	0xf6, 0x10, 0xf3, 0x03, 0xf9, 0x05, 0xfa, 0x08, 0x11, 0x0b, 0x0e, 0xfe, 
	0x07, 0x01, 0xf5, 0xf8, 0x08, 0xfb, 0xfc, 0x0a, 0xf3, 0xf4, 0x0a, 0x0a, 
	0x06, 0x0a, 0x0c, 0x0d, 0xfd, 0xf0, 0x02, 0xf7, 0x06, 0xf0, 0x0c, 0x07, 
	0xf7, 0xfe, 0x11, 0x02, 0x0e, 0x01, 0xf0, 0xff, 0xf4, 0xf4, 0xf4, 0x08, 
	0xf1, 0xf3, 0x07, 0x09, 0xfe, 0xf7, 0xf8, 0xfd, 0x0c, 0x0d, 0x00, 0x0d, 
	0x03, 0xfd, 0x09, 0xf1, 0xf0, 0xf8, 0xfb, 0x08, 0xfa, 0x0b, 0xfc, 0x00, 
	0xf8, 0x07, 0x0f, 0x03, 0x0d, 0x0e, 0xfd, 0xfa, 0xf0, 0xf1, 0x0b, 0x01, 
	0xfb, 0x0b, 0xfb, 0xf4, 0x08, 0x0a, 0x0d, 0xfd, 0xf8, 0x0c, 0xf0, 0xf5, 
	0xfd, 0xff, 0x09, 0x08, 0x03, 0x11, 0xfc, 0xff, 0x11, 0x06, 0xf0, 0x01, 
	0x0a, 0x0b, 0x02, 0x07, 0xf2, 0x0f, 0x00, 0x09, 0xfa, 0x05, 0x10, 0x10, 
	0xf1, 0x0f, 0x0b, 0xef, 0xf0, 0xf5, 0xfd, 0x0f, 0x0f, 0xf9, 0xf6, 0x0b, 
	0xf0, 0xfa, 0xf7, 0x01, 0xf2, 0x0d, 0xf5, 0x02, 0x09, 0x0a, 0xf0, 0x03, 
	0xff, 0xfa, 0xf4, 0xef, 0x03, 0x02, 0x00, 0x06, 0xf0, 0xf0, 0xf1, 0x01, 
	0xf9, 0x0d, 0x01, 0xf4, 0x06, 0x10, 0xf7, 0xf5, 0x08, 0x08, 0x0c, 0x11, 
	0x05, 0xfa, 0x00, 0xf1, 0x05, 0x00, 0x03, 0x0f, 0xff, 0xf7, 0xfa, 0x00, 
	0xf6, 0x02, 0x02, 0x0e, 0xf3, 0xf7, 0xf0, 0xf8, 0xf1, 0xfb, 0x08, 0x0e, 
	0x10, 0x09, 0x07, 0x01, 0x11, 0xf2, 0xf3, 0xf5, 0xf0, 0x03, 0x10, 0xef, 
	0x11, 0x08, 0xff, 0x03, 0x0b, 0xfb, 0x07, 0xfd, 0xf4, 0xef, 0xfd, 0xfa, 
	0x02, 0xf0, 0xf4, 0x09, 0x01, 0xf3, 0xfd, 0x07, 0xff, 0x0d, 0x01, 0x00, 
	0x0d, 0xf5, 0xfa, 0xf7, 0xfe, 0xf2, 0xf3, 0xfc, 0x06, 0xf8, 0x01, 0xf2, 
	0x05, 0xfa, 0xfa, 0x08, 0xf3, 0xf7, 0xf0, 0x0f, 0xf8, 0xfd, 0xf8, 0xf5, 
	0xf2, 0x00, 0x09, 0xf2, 0xf7, 0x04, 0xf1, 0x10, 0xfb, 0x0e, 0x09, 0x02, 
	0x01, 0x03, 0xf2, 0xf6, 0xfa, 0x0b, 0xf0, 0x02, 0xfd, 0x05, 0xfa, 0x04, 
	0xf1, 0x01, 0x10, 0x0b, 0x0f, 0x0f, 0xf9, 0xf1, 0x09, 0xf6, 0x0a, 0xfb, 
	0xf1, 0xfe, 0xf1, 0xfb, 0x03, 0xfd, 0x08, 0x10, 0xf4, 0xf0, 0x09, 0x11, 
	0x09, 0xf8, 0x0b, 0x0a, 0xfa, 0xfe, 0xf6, 0x02, 0xf2, 0x00, 0x10, 0x10, 
	0xf6, 0xfd, 0xff, 0xfc, 0x06, 0x0e, 0xf6, 0xf7, 0xf9, 0xf6, 0xfe, 0xef, 
	0x0c, 0xf5, 0x0a, 0x10, 0x01, 0x0b, 0xfa, 0x01, 0x02, 0xf6, 0x04, 0x11, 
	0x0e, 0x0f, 0xff, 0xf6, 0xfc, 0x06, 0x07, 0xf2, 0xfe, 0x09, 0xf0, 0xfb, 
	0xf4, 0x0f, 0x00, 0x01, 0x0c, 0x06, 0xff, 0x0e, 0x0d, 0xf3, 0xf7, 0x0a, 
	0xf7, 0x10, 0x11, 0xfc, 0x02, 0x03, 0xfb, 0xf7, 0xfd, 0xf5, 0x09, 0x03, 
	0xf6, 0xf8, 0xef, 0x02, 0x01, 0x0b, 0xf9, 0x0e, 0xf3, 0x0f, 0x01, 0xff, 
	0xfe, 0xfa, 0x0f, 0x00, 0x0d, 0xfa, 0x05, 0xfa, 0xf0, 0xf8, 0xf5, 0xf0, 
	0x08, 0xfa, 0xf9, 0xfd, 0xf3, 0xf2, 0x0a, 0x0f, 0xf1, 0xf0, 0x00, 0xf3, 
	0x00, 0x0c, 0xf8, 0x0e, 0x02, 0x0e, 0x00, 0x09, 0xfa, 0x10, 0x08, 0xfd, 
	0x10, 0x10, 0xf8, 0x09, 0xf8, 0xf6, 0xfa, 0x0b, 0xfd, 0xf6, 0xfe, 0x00, 
	0xf6, 0x0a, 0x09, 0x0a, 0x06, 0x05, 0x02, 0xfb, 0x0b, 0x03, 0x09, 0x04, 
	0x10, 0x0c, 0xf7, 0x0a, 0x02, 0xf8, 0xf9, 0xfa, 0xff, 0x0f, 0xf6, 0x0f, 
	0x05, 0x0d, 0x02, 0x03, 0xfa, 0x06, 0xf9, 0xf3, 0x08, 0x04, 0x06, 0x03, 
	0xf9, 0x0b, 0x05, 0xf3, 0x02, 0xf4, 0xfa, 0xf9, 0x0c, 0x07, 0x0c, 0xf7, 
